unsigned char model_tflite[] = {
  0x1c, 0x00, 0x00, 0x00, 0x54, 0x46, 0x4c, 0x33, 0x14, 0x00, 0x20, 0x00,
  0x1c, 0x00, 0x18, 0x00, 0x14, 0x00, 0x10, 0x00, 0x0c, 0x00, 0x00, 0x00,
  0x08, 0x00, 0x04, 0x00, 0x14, 0x00, 0x00, 0x00, 0x1c, 0x00, 0x00, 0x00,
  0x1c, 0x00, 0x00, 0x00, 0x74, 0x00, 0x00, 0x00, 0xfc, 0x2e, 0x00, 0x00,
  0x0c, 0x2f, 0x00, 0x00, 0xe4, 0x3a, 0x00, 0x00, 0x03, 0x00, 0x00, 0x00,
  0x00, 0x00, 0x00, 0x00, 0x02, 0x00, 0x00, 0x00, 0x34, 0x00, 0x00, 0x00,
  0x04, 0x00, 0x00, 0x00, 0xdc, 0xff, 0xff, 0xff, 0x1a, 0x00, 0x00, 0x00,
  0x04, 0x00, 0x00, 0x00, 0x13, 0x00, 0x00, 0x00, 0x43, 0x4f, 0x4e, 0x56,
  0x45, 0x52, 0x53, 0x49, 0x4f, 0x4e, 0x5f, 0x4d, 0x45, 0x54, 0x41, 0x44,
  0x41, 0x54, 0x41, 0x00, 0x08, 0x00, 0x0c, 0x00, 0x08, 0x00, 0x04, 0x00,
  0x08, 0x00, 0x00, 0x00, 0x19, 0x00, 0x00, 0x00, 0x04, 0x00, 0x00, 0x00,
  0x13, 0x00, 0x00, 0x00, 0x6d, 0x69, 0x6e, 0x5f, 0x72, 0x75, 0x6e, 0x74,
  0x69, 0x6d, 0x65, 0x5f, 0x76, 0x65, 0x72, 0x73, 0x69, 0x6f, 0x6e, 0x00,
  0x1b, 0x00, 0x00, 0x00, 0x84, 0x2e, 0x00, 0x00, 0x7c, 0x2e, 0x00, 0x00,
  0xec, 0x2d, 0x00, 0x00, 0x94, 0x2d, 0x00, 0x00, 0x44, 0x2d, 0x00, 0x00,
  0x30, 0x2d, 0x00, 0x00, 0x14, 0x2d, 0x00, 0x00, 0xf4, 0x2c, 0x00, 0x00,
  0x64, 0x29, 0x00, 0x00, 0x54, 0x11, 0x00, 0x00, 0x44, 0x05, 0x00, 0x00,
  0x34, 0x01, 0x00, 0x00, 0x08, 0x01, 0x00, 0x00, 0xe8, 0x00, 0x00, 0x00,
  0xe0, 0x00, 0x00, 0x00, 0xd8, 0x00, 0x00, 0x00, 0xd0, 0x00, 0x00, 0x00,
  0xc8, 0x00, 0x00, 0x00, 0xc0, 0x00, 0x00, 0x00, 0xb8, 0x00, 0x00, 0x00,
  0xb0, 0x00, 0x00, 0x00, 0xa8, 0x00, 0x00, 0x00, 0xa0, 0x00, 0x00, 0x00,
  0x98, 0x00, 0x00, 0x00, 0x90, 0x00, 0x00, 0x00, 0x70, 0x00, 0x00, 0x00,
  0x04, 0x00, 0x00, 0x00, 0x7e, 0xd2, 0xff, 0xff, 0x04, 0x00, 0x00, 0x00,
  0x5c, 0x00, 0x00, 0x00, 0x0c, 0x00, 0x00, 0x00, 0x08, 0x00, 0x0e, 0x00,
  0x08, 0x00, 0x04, 0x00, 0x08, 0x00, 0x00, 0x00, 0x14, 0x00, 0x00, 0x00,
  0x2c, 0x00, 0x00, 0x00, 0x00, 0x00, 0x0a, 0x00, 0x0c, 0x00, 0x08, 0x00,
  0x00, 0x00, 0x07, 0x00, 0x0a, 0x00, 0x00, 0x00, 0x00, 0x00, 0x00, 0x01,
  0x04, 0x00, 0x00, 0x00, 0x00, 0x00, 0x00, 0x00, 0x00, 0x00, 0x0a, 0x00,
  0x10, 0x00, 0x0c, 0x00, 0x08, 0x00, 0x04, 0x00, 0x0a, 0x00, 0x00, 0x00,
  0x03, 0x00, 0x00, 0x00, 0x02, 0x00, 0x00, 0x00, 0x04, 0x00, 0x00, 0x00,
  0x06, 0x00, 0x00, 0x00, 0x32, 0x2e, 0x31, 0x36, 0x2e, 0x32, 0x00, 0x00,
  0xe6, 0xd2, 0xff, 0xff, 0x04, 0x00, 0x00, 0x00, 0x10, 0x00, 0x00, 0x00,
  0x32, 0x2e, 0x30, 0x2e, 0x30, 0x00, 0x00, 0x00, 0x00, 0x00, 0x00, 0x00,
  0x00, 0x00, 0x00, 0x00, 0xa0, 0xc6, 0xff, 0xff, 0xa4, 0xc6, 0xff, 0xff,
  0xa8, 0xc6, 0xff, 0xff, 0xac, 0xc6, 0xff, 0xff, 0xb0, 0xc6, 0xff, 0xff,
  0xb4, 0xc6, 0xff, 0xff, 0xb8, 0xc6, 0xff, 0xff, 0xbc, 0xc6, 0xff, 0xff,
  0xc0, 0xc6, 0xff, 0xff, 0xc4, 0xc6, 0xff, 0xff, 0xc8, 0xc6, 0xff, 0xff,
  0x2e, 0xd3, 0xff, 0xff, 0x04, 0x00, 0x00, 0x00, 0x10, 0x00, 0x00, 0x00,
  0x01, 0x00, 0x00, 0x00, 0x01, 0x00, 0x00, 0x00, 0x00, 0x0f, 0x00, 0x00,
  0x01, 0x00, 0x00, 0x00, 0x4a, 0xd3, 0xff, 0xff, 0x04, 0x00, 0x00, 0x00,
  0x1c, 0x00, 0x00, 0x00, 0x30, 0xa0, 0xcd, 0xbe, 0x91, 0xe9, 0x19, 0xbe,
  0xf0, 0x56, 0xac, 0xbe, 0x9b, 0x8b, 0x15, 0x3f, 0x1f, 0x95, 0x37, 0x3e,
  0xdc, 0xab, 0xcb, 0x3e, 0xf8, 0xaa, 0x23, 0xbe, 0x72, 0xd3, 0xff, 0xff,
  0x04, 0x00, 0x00, 0x00, 0x00, 0x04, 0x00, 0x00, 0x00, 0xa0, 0x0c, 0x39,
  0xca, 0xac, 0xa0, 0x38, 0xbf, 0xf5, 0xf2, 0x37, 0x01, 0x04, 0x24, 0x38,
  0x08, 0x78, 0x8b, 0x38, 0x36, 0xdc, 0x94, 0xb6, 0x28, 0x62, 0x35, 0x38,
  0xdc, 0x58, 0x4c, 0xb7, 0xe2, 0x61, 0x38, 0xb8, 0x80, 0x2e, 0x3c, 0xb9,
  0x7d, 0x03, 0x8f, 0xb6, 0xa8, 0x5f, 0xe7, 0xb6, 0x2f, 0xe9, 0xe6, 0xb6,
  0xa4, 0x4a, 0x87, 0xb8, 0xe2, 0x84, 0x11, 0xb7, 0xa8, 0x28, 0xa9, 0xb6,
  0xa1, 0xbb, 0x14, 0xb8, 0xcf, 0xeb, 0x06, 0x37, 0x8b, 0xf2, 0x0b, 0xb9,
  0xd0, 0x7c, 0xaf, 0x37, 0xe3, 0x9a, 0x86, 0xb6, 0xcc, 0xc8, 0xc8, 0xb7,
  0x18, 0x0e, 0x26, 0xb6, 0x52, 0x92, 0xab, 0xb6, 0x2e, 0xf4, 0x70, 0x39,
  0xa8, 0x55, 0x5c, 0x36, 0xf9, 0xdf, 0x15, 0xb8, 0xa7, 0x17, 0x14, 0xb7,
  0x32, 0xf2, 0xb1, 0x35, 0x56, 0x5f, 0x7f, 0x37, 0xb5, 0x09, 0xd0, 0xb5,
  0xea, 0xf7, 0xf4, 0x37, 0xa5, 0xd9, 0xfc, 0xb4, 0xa7, 0xbb, 0x14, 0x36,
  0xdf, 0x70, 0xb4, 0x37, 0x1d, 0x80, 0x6b, 0x37, 0x7b, 0xab, 0xa7, 0x38,
  0xb1, 0xac, 0xc2, 0x38, 0x92, 0xbd, 0xa5, 0xb7, 0xa1, 0xb9, 0x75, 0x37,
  0x30, 0xfd, 0x17, 0xb8, 0xd1, 0x1f, 0x8c, 0xb8, 0xbb, 0x01, 0x81, 0xb6,
  0x26, 0x0f, 0xd8, 0x36, 0x2f, 0x9a, 0x33, 0x38, 0xbc, 0x81, 0x98, 0x38,
  0x26, 0xc4, 0x75, 0x37, 0x32, 0x41, 0x2d, 0xb9, 0x16, 0x51, 0x39, 0x38,
  0xab, 0x69, 0xa2, 0xb7, 0x36, 0x67, 0x04, 0xb9, 0x50, 0xc6, 0xad, 0xb7,
  0xfe, 0x43, 0x7d, 0xb7, 0xfc, 0x83, 0xae, 0x36, 0x41, 0x12, 0xe1, 0x38,
  0x27, 0x46, 0xba, 0x36, 0x9f, 0xd4, 0xa4, 0x38, 0xe9, 0x77, 0xa6, 0x35,
  0x5a, 0x3f, 0xe5, 0xb8, 0xd2, 0xbc, 0x1b, 0xb7, 0x2e, 0xbc, 0x73, 0xb7,
  0xbc, 0x5a, 0x72, 0xb7, 0x48, 0x89, 0xc6, 0x37, 0xf5, 0x59, 0x3e, 0x36,
  0x82, 0x4e, 0xd2, 0xb8, 0x89, 0x77, 0x2d, 0xb8, 0x20, 0x17, 0x96, 0xb8,
  0x00, 0xf2, 0xd6, 0xb7, 0x5a, 0x90, 0xbc, 0x37, 0x71, 0x3f, 0x41, 0xb6,
  0x14, 0x15, 0x85, 0x37, 0x61, 0x4d, 0x84, 0xb6, 0x9a, 0x27, 0x09, 0xb9,
  0x25, 0x57, 0xba, 0x38, 0xf4, 0x2e, 0xc3, 0x37, 0x93, 0x22, 0x40, 0x36,
  0x33, 0x0a, 0x56, 0xb7, 0xae, 0x9a, 0x3b, 0xb7, 0xbe, 0x2d, 0x06, 0xb8,
  0x17, 0x05, 0xbb, 0x36, 0x79, 0xf6, 0xb3, 0xb8, 0x3e, 0x1d, 0xba, 0xb7,
  0x5e, 0x02, 0x79, 0x36, 0x24, 0x50, 0x9a, 0xb7, 0x8b, 0x51, 0xe7, 0x37,
  0x67, 0x93, 0x44, 0x38, 0xbf, 0xc5, 0x06, 0x39, 0x85, 0x51, 0xe5, 0x38,
  0x8d, 0x54, 0x0a, 0xb8, 0xd8, 0x11, 0x49, 0x36, 0xf4, 0x4a, 0x21, 0xb7,
  0xa1, 0xda, 0x8e, 0xb7, 0x98, 0x04, 0xf3, 0xb7, 0x0c, 0x90, 0x35, 0xb8,
  0xa3, 0x30, 0xa2, 0xb6, 0x6d, 0x9c, 0xcd, 0xb6, 0xbc, 0x70, 0xd2, 0xb7,
  0x50, 0x23, 0xd2, 0xb7, 0xe0, 0x52, 0xfe, 0xb5, 0x59, 0x13, 0xa5, 0xb6,
  0x61, 0x31, 0x87, 0xb8, 0x15, 0xe8, 0x9a, 0xb8, 0x94, 0x01, 0x99, 0xb8,
  0x4b, 0x81, 0x32, 0xb8, 0x0a, 0x63, 0x27, 0xb8, 0x19, 0x15, 0x12, 0xb8,
  0x84, 0x66, 0x0c, 0x35, 0xc4, 0x95, 0xbe, 0xb5, 0xc9, 0x4f, 0x98, 0xb6,
  0x19, 0xc3, 0x8d, 0xb8, 0x0c, 0x2e, 0x45, 0xb8, 0xfa, 0xb8, 0xb3, 0xb4,
  0x2e, 0xde, 0x3f, 0xb7, 0x63, 0xdc, 0x47, 0x38, 0x38, 0x5b, 0xdd, 0x38,
  0x47, 0xe8, 0x52, 0xb8, 0x6d, 0x53, 0x81, 0xb9, 0x98, 0x84, 0x91, 0x38,
  0x6f, 0xf5, 0x02, 0xb7, 0x69, 0x34, 0x2d, 0x38, 0x48, 0xc0, 0xc5, 0xb7,
  0x4c, 0x90, 0x05, 0x38, 0xf7, 0x08, 0x77, 0x37, 0x2d, 0x17, 0xfe, 0x36,
  0xc7, 0x59, 0x1c, 0x37, 0xc8, 0x33, 0x96, 0xb7, 0x11, 0xce, 0x7f, 0x37,
  0x86, 0x8e, 0x9c, 0xb5, 0xff, 0x0c, 0xce, 0x36, 0x61, 0x96, 0x29, 0xb8,
  0x6e, 0x44, 0x2f, 0xb7, 0x5b, 0x12, 0x06, 0x39, 0xbd, 0x71, 0x7c, 0xb7,
  0x05, 0x98, 0xc4, 0xb8, 0x2e, 0x7b, 0x13, 0xb6, 0xee, 0x1d, 0x67, 0x38,
  0x95, 0x1c, 0x2f, 0x37, 0xdc, 0xb2, 0xa4, 0xb8, 0xc8, 0x56, 0xfe, 0x37,
  0x19, 0xe3, 0x76, 0x37, 0xc1, 0x47, 0x51, 0xb6, 0x7d, 0x83, 0x4e, 0x37,
  0x2d, 0x3b, 0x70, 0xb7, 0x1e, 0xc5, 0x3e, 0x38, 0xa2, 0xa7, 0x94, 0xb8,
  0xb5, 0x27, 0x96, 0xb8, 0xa3, 0x75, 0xa8, 0xb7, 0x99, 0x21, 0xa6, 0x37,
  0xec, 0x59, 0x9f, 0xb6, 0x81, 0x58, 0x88, 0xb7, 0xd2, 0x80, 0x26, 0x38,
  0x27, 0x06, 0x32, 0x38, 0x3e, 0x92, 0x99, 0xb7, 0x5f, 0xc8, 0x1a, 0xb8,
  0xd6, 0xd2, 0x9f, 0xb5, 0xdb, 0x58, 0x00, 0x37, 0x3f, 0xaf, 0x0f, 0xb6,
  0x3d, 0xbb, 0xa2, 0x38, 0x39, 0x4a, 0xee, 0x38, 0xb3, 0x07, 0x14, 0x38,
  0xeb, 0xda, 0xa3, 0xb7, 0xe7, 0x7d, 0xec, 0x37, 0x10, 0x45, 0xc4, 0x36,
  0x86, 0xa6, 0xbf, 0x37, 0xc2, 0x82, 0xb0, 0x36, 0xe8, 0x86, 0x66, 0xb8,
  0x37, 0x22, 0xee, 0xb7, 0x57, 0x43, 0x7f, 0xb7, 0xe8, 0x76, 0x70, 0x37,
  0x56, 0xca, 0x4b, 0x39, 0x6a, 0xd1, 0x30, 0x38, 0x28, 0xc5, 0x77, 0x37,
  0x99, 0x7b, 0x83, 0x36, 0x24, 0xb2, 0xd8, 0xb8, 0x65, 0xd1, 0xa7, 0xb8,
  0x3d, 0x8c, 0x93, 0x37, 0xce, 0xc8, 0x65, 0x39, 0xe0, 0xb5, 0xaa, 0xb8,
  0x96, 0xac, 0x01, 0xb9, 0xae, 0xa8, 0x40, 0xb8, 0x28, 0xdd, 0x86, 0xb8,
  0xd4, 0xe2, 0xa7, 0xb6, 0xbb, 0x21, 0x9f, 0xb7, 0x29, 0xf8, 0x0d, 0x38,
  0x93, 0x2e, 0x11, 0xb7, 0xb3, 0x31, 0xd8, 0x37, 0x25, 0xbc, 0x79, 0x38,
  0xec, 0xc2, 0xbc, 0x36, 0x18, 0x5e, 0x35, 0xb7, 0x8c, 0x30, 0x7d, 0xb7,
  0x52, 0x1b, 0x2c, 0x38, 0x62, 0x65, 0x37, 0x37, 0xc4, 0x91, 0x3c, 0x38,
  0x05, 0x0f, 0x73, 0x37, 0xaf, 0x37, 0xa4, 0xb7, 0x9b, 0x9d, 0xe4, 0x37,
  0xe9, 0x02, 0x17, 0x37, 0xf7, 0xd6, 0x8e, 0x37, 0x86, 0x1e, 0x03, 0x38,
  0xd1, 0xef, 0x9d, 0x38, 0x5f, 0xf3, 0x2b, 0x38, 0x7c, 0x97, 0x99, 0xb3,
  0xa8, 0x95, 0xc0, 0x36, 0xdb, 0xf6, 0x33, 0xb7, 0x5e, 0xd9, 0x1a, 0x38,
  0x63, 0x45, 0xe6, 0x37, 0xdd, 0x07, 0x2e, 0x38, 0x94, 0x19, 0xbc, 0x38,
  0x13, 0x55, 0x7f, 0x37, 0x8d, 0x1d, 0x50, 0x38, 0xd3, 0x16, 0xe8, 0x37,
  0xc2, 0xcb, 0x93, 0x38, 0xb9, 0xad, 0x05, 0x37, 0x81, 0x99, 0x1a, 0xb8,
  0xc0, 0xbe, 0x0b, 0xb7, 0x1a, 0x56, 0x1a, 0xb6, 0x1e, 0x7b, 0xe8, 0x38,
  0x6c, 0xc4, 0x10, 0x38, 0x6a, 0xef, 0x24, 0x38, 0x98, 0x57, 0xbe, 0x37,
  0xd2, 0x39, 0xd5, 0x36, 0x50, 0x52, 0x8f, 0x37, 0x4d, 0xd3, 0x69, 0xb6,
  0xfd, 0xd1, 0xfa, 0xb7, 0x2f, 0x8d, 0xf5, 0xb7, 0x59, 0xa5, 0x8f, 0xb6,
  0x3b, 0x26, 0x4d, 0x37, 0xc2, 0xcb, 0x1a, 0x37, 0xd9, 0xcc, 0xa2, 0x38,
  0xf5, 0x0d, 0xf1, 0x37, 0x2b, 0x0f, 0x67, 0xb9, 0x58, 0x01, 0xf2, 0x36,
  0x07, 0xe5, 0x34, 0x38, 0x8e, 0x27, 0x7e, 0xb6, 0x76, 0x9f, 0x18, 0x38,
  0xd8, 0x51, 0xa6, 0x36, 0xf8, 0x6f, 0x3f, 0x38, 0x86, 0xd3, 0xbd, 0x37,
  0x1a, 0x89, 0xea, 0xb7, 0x02, 0xe9, 0x0b, 0xb6, 0xc6, 0xa3, 0xba, 0x36,
  0x87, 0x06, 0x0f, 0xb7, 0xc2, 0xa4, 0x16, 0xb6, 0x14, 0xef, 0x77, 0xb7,
  0x54, 0xe9, 0x6a, 0x37, 0x70, 0x0f, 0x8e, 0xb7, 0xf0, 0x15, 0xd6, 0xb7,
  0xc0, 0x48, 0x30, 0xb9, 0x4d, 0x9e, 0xa3, 0x36, 0xad, 0x51, 0xa1, 0xb6,
  0x6d, 0x69, 0x6d, 0xb6, 0x90, 0x18, 0x4e, 0x37, 0xb1, 0x8a, 0x15, 0xb7,
  0x69, 0xb1, 0x39, 0x39, 0x8f, 0x78, 0x3f, 0x38, 0x84, 0xfc, 0xc6, 0x36,
  0x7e, 0xd7, 0xff, 0xff, 0x04, 0x00, 0x00, 0x00, 0x00, 0x0c, 0x00, 0x00,
  0x77, 0x8a, 0x85, 0xbe, 0x96, 0x62, 0xbe, 0x3c, 0x5b, 0x82, 0xf8, 0x3c,
  0x47, 0xe6, 0xa8, 0xbd, 0x37, 0x9f, 0xc0, 0xbe, 0xba, 0xb2, 0x18, 0x3e,
  0xe7, 0x15, 0x4f, 0xbd, 0x34, 0xfa, 0x35, 0xbd, 0x03, 0x4a, 0x5e, 0xbb,
  0xea, 0x11, 0xde, 0xbd, 0xf1, 0x90, 0x6b, 0xbd, 0x84, 0x22, 0xe9, 0x3d,
  0xe0, 0xfa, 0x66, 0x3e, 0x21, 0xe3, 0x07, 0xbe, 0x5e, 0xc1, 0x76, 0x3c,
  0xd1, 0x61, 0xc3, 0x3d, 0xcf, 0x1e, 0x3e, 0x3d, 0xec, 0x20, 0x75, 0x3e,
  0x35, 0xca, 0x3b, 0x3b, 0x63, 0x93, 0x73, 0xbd, 0x98, 0x8f, 0x1b, 0x3e,
  0x91, 0x6f, 0x34, 0xbe, 0x6f, 0x4a, 0x16, 0xbe, 0x58, 0x66, 0x9e, 0x39,
  0xdd, 0x69, 0xfa, 0xbb, 0x9f, 0x32, 0x99, 0xbd, 0xb7, 0xab, 0x65, 0xbe,
  0x44, 0x9a, 0xde, 0xbd, 0x07, 0x75, 0x0a, 0x3e, 0xd4, 0x3d, 0x28, 0x3d,
  0xb8, 0x24, 0x18, 0xbd, 0x6b, 0xf7, 0x03, 0xbc, 0x3a, 0x4b, 0x84, 0x3b,
  0xc5, 0x08, 0x5f, 0xbe, 0x2c, 0x24, 0x32, 0x3c, 0x6e, 0x94, 0x21, 0x3e,
  0x85, 0xf2, 0xb8, 0xbe, 0xdd, 0xb8, 0x21, 0xbe, 0xef, 0xa8, 0x74, 0xbb,
  0x8e, 0x7e, 0xdd, 0xbc, 0x85, 0xf6, 0x44, 0xbe, 0x57, 0xb2, 0x82, 0xbd,
  0x9a, 0x4e, 0x16, 0x3e, 0x42, 0x4e, 0x36, 0xbd, 0x28, 0xbc, 0x69, 0x3d,
  0xa9, 0x21, 0xbb, 0xbb, 0x35, 0xb4, 0xb5, 0x3c, 0x97, 0x75, 0x9a, 0x3d,
  0x87, 0x9e, 0x99, 0xbd, 0xab, 0x61, 0x5e, 0x3d, 0xe1, 0xf2, 0x09, 0xbd,
  0x2f, 0x01, 0x0f, 0xbd, 0x50, 0x2e, 0xff, 0xbd, 0x2d, 0x3c, 0xff, 0xbd,
  0x10, 0x54, 0x23, 0x3d, 0x00, 0xd5, 0x11, 0x3e, 0xca, 0x32, 0x3b, 0xbd,
  0xb7, 0xf9, 0xd6, 0x3b, 0x67, 0xcc, 0x0b, 0x3d, 0xf8, 0x85, 0x04, 0xbe,
  0x63, 0xb2, 0xbd, 0xbd, 0xad, 0x2a, 0x24, 0x3e, 0x37, 0xa3, 0xf9, 0xbd,
  0x3a, 0x3d, 0xde, 0xbd, 0xcc, 0x1c, 0xde, 0xbc, 0x4a, 0xd4, 0x0c, 0x3e,
  0xae, 0x4e, 0xe4, 0xbd, 0x25, 0xeb, 0x06, 0x3d, 0x13, 0x0e, 0x16, 0xbd,
  0x0b, 0x2a, 0x22, 0xbd, 0x3d, 0x80, 0x41, 0x3d, 0x2e, 0xf6, 0xc4, 0x3d,
  0x31, 0x83, 0x61, 0x3d, 0x9d, 0x74, 0x2c, 0xbe, 0x31, 0x2a, 0x02, 0x3d,
  0x96, 0xbe, 0xf9, 0x3d, 0xcf, 0x5a, 0xe8, 0xbc, 0x60, 0x4a, 0x0e, 0x3d,
  0x8d, 0x0d, 0x43, 0xbc, 0x80, 0xe1, 0x45, 0xbe, 0xa0, 0x75, 0xaa, 0xbd,
  0xb2, 0x1a, 0x38, 0x3d, 0x65, 0xae, 0x00, 0x3d, 0x4f, 0x69, 0x9c, 0xbd,
  0x8e, 0x2a, 0x21, 0xba, 0x6f, 0x9b, 0xc1, 0xbc, 0x42, 0x12, 0xc3, 0xba,
  0x1f, 0xb9, 0x8c, 0xbd, 0x65, 0x93, 0xc0, 0xbd, 0xcb, 0xe9, 0x24, 0x3c,
  0x4f, 0x76, 0x34, 0xbe, 0x8e, 0xb1, 0x87, 0xbc, 0xc4, 0x27, 0xad, 0xbd,
  0x8f, 0x18, 0x7d, 0x3d, 0x65, 0x43, 0x85, 0xbd, 0xd4, 0x44, 0x03, 0xbd,
  0x38, 0x10, 0xf4, 0xbe, 0xc3, 0xcd, 0x6e, 0x3d, 0xaa, 0x1a, 0x9a, 0xbd,
  0x34, 0x9b, 0x88, 0xbe, 0xed, 0xeb, 0x83, 0xbe, 0x4c, 0x4d, 0x7f, 0xbe,
  0xc4, 0xcf, 0xf0, 0xbc, 0xbf, 0xbf, 0x81, 0xbe, 0x89, 0xc2, 0x13, 0xbf,
  0x05, 0x87, 0x95, 0x3e, 0x42, 0x96, 0x16, 0xbe, 0xce, 0xff, 0x4d, 0x3e,
  0xd2, 0xb9, 0x24, 0xbd, 0x3c, 0x04, 0x8b, 0xbe, 0xbf, 0x87, 0x56, 0xbd,
  0x72, 0xde, 0xcb, 0xbe, 0xf2, 0x64, 0x77, 0xbd, 0x17, 0xa9, 0x36, 0xbd,
  0x44, 0x26, 0x3a, 0x3e, 0x82, 0xee, 0x09, 0x3c, 0xb4, 0xea, 0xd5, 0xbd,
  0x5c, 0x36, 0x05, 0xbc, 0x4d, 0x43, 0x26, 0x3d, 0x5c, 0x6b, 0xf6, 0x3c,
  0xfa, 0x09, 0xc7, 0x3d, 0x09, 0x41, 0x3f, 0xbd, 0xa6, 0xd6, 0xda, 0x3c,
  0x37, 0x5a, 0x8f, 0xbd, 0xf2, 0x47, 0xdb, 0x3d, 0x94, 0x86, 0x2e, 0xbd,
  0x8b, 0x8e, 0x12, 0x3b, 0xb9, 0x99, 0x88, 0x3b, 0xd5, 0xf6, 0x38, 0x3c,
  0xd9, 0xa6, 0xfd, 0xbd, 0x65, 0x78, 0xf9, 0xbb, 0x27, 0xd2, 0xb0, 0x3d,
  0x6a, 0x41, 0xe1, 0xbc, 0xfb, 0x18, 0x57, 0xbd, 0xb0, 0xa1, 0x07, 0xbd,
  0xe6, 0xae, 0xf7, 0x3d, 0x3d, 0xf5, 0xc1, 0x3c, 0x7b, 0xa1, 0x9f, 0x3c,
  0x77, 0xe7, 0xaa, 0x3d, 0xa1, 0xa6, 0x01, 0x3e, 0x69, 0xba, 0x33, 0xbd,
  0xa7, 0xdd, 0x86, 0xbd, 0xd4, 0x87, 0x5b, 0x3d, 0x71, 0x7e, 0xdb, 0x3d,
  0x14, 0x05, 0xd4, 0xbc, 0x1f, 0x2a, 0x7f, 0x3c, 0xea, 0x34, 0xf1, 0xbe,
  0xf1, 0x83, 0x0f, 0xbe, 0x63, 0x13, 0x11, 0xbe, 0x6b, 0xd7, 0x9c, 0x3d,
  0xce, 0x79, 0x5f, 0xbe, 0xae, 0x0d, 0x58, 0xbe, 0x8a, 0xcf, 0x40, 0xbe,
  0x9e, 0x92, 0xd2, 0xbe, 0x46, 0x22, 0x3b, 0xbe, 0x85, 0x10, 0xb6, 0xbd,
  0xc4, 0x15, 0xed, 0xbd, 0x98, 0xf8, 0x04, 0x3e, 0x75, 0x0a, 0xc9, 0x3d,
  0xc8, 0x25, 0x69, 0x3d, 0x85, 0x60, 0xe9, 0x3c, 0xf2, 0x1e, 0x90, 0x3e,
  0x96, 0x8f, 0x33, 0x3e, 0xd2, 0x12, 0x05, 0xbe, 0xe2, 0xb2, 0xc9, 0xbd,
  0xf9, 0xb9, 0x70, 0xbe, 0xe5, 0xe7, 0x84, 0x3e, 0x97, 0xc6, 0x8e, 0xbd,
  0x96, 0x1a, 0x36, 0xbd, 0xa8, 0xd7, 0x19, 0x3c, 0x8e, 0x6d, 0x2e, 0xbc,
  0x06, 0xb5, 0x52, 0xbe, 0x73, 0xaf, 0x8f, 0x3e, 0xe4, 0x89, 0x8c, 0xbe,
  0xe8, 0x61, 0x04, 0xbe, 0x67, 0x8e, 0x05, 0x3d, 0xdd, 0xd4, 0x09, 0x3d,
  0xe6, 0x30, 0xbf, 0xbe, 0x64, 0xd8, 0x3f, 0xbe, 0xc2, 0x30, 0x91, 0xbc,
  0xcd, 0xbd, 0x86, 0xbe, 0x65, 0xc2, 0x5e, 0x3a, 0x9c, 0x47, 0xd1, 0xbd,
  0x47, 0x94, 0xe0, 0x3c, 0x27, 0xd4, 0x8c, 0xbe, 0x4b, 0x58, 0x60, 0xbe,
  0xf6, 0xf7, 0x99, 0x3d, 0x1f, 0x66, 0x09, 0x3e, 0xc0, 0x6f, 0x86, 0xbb,
  0xf7, 0x95, 0x09, 0xbf, 0x33, 0x1a, 0x80, 0xbb, 0x5c, 0xb6, 0x4d, 0x3c,
  0x49, 0x28, 0x24, 0x3c, 0xc9, 0x4f, 0x1a, 0x3d, 0xe5, 0xa8, 0x84, 0xbd,
  0x7b, 0x63, 0xb3, 0x3b, 0x74, 0xb9, 0x33, 0x3e, 0x3d, 0x7a, 0x3a, 0x3d,
  0x69, 0xda, 0x01, 0xbe, 0xfa, 0xc8, 0x9e, 0x3d, 0xa7, 0x09, 0x90, 0x3d,
  0x66, 0x24, 0x0f, 0xbe, 0xb5, 0x29, 0xb5, 0xbc, 0xba, 0x96, 0x19, 0x3d,
  0x63, 0x4f, 0xd5, 0xbd, 0x82, 0x95, 0x03, 0x3e, 0x2a, 0xb6, 0x17, 0x3c,
  0x51, 0x65, 0x3d, 0x3d, 0x02, 0x9f, 0x9a, 0xbd, 0x15, 0x95, 0x92, 0xbb,
  0x11, 0xb5, 0x9d, 0xbd, 0x05, 0x4e, 0x10, 0xbd, 0x6c, 0x1a, 0xcf, 0xbd,
  0x10, 0x6d, 0x78, 0x3d, 0xbb, 0x8e, 0x04, 0x3e, 0xe5, 0x33, 0xaf, 0xbd,
  0xc8, 0xbf, 0x17, 0xbe, 0x31, 0x99, 0x46, 0xbe, 0xb8, 0x59, 0xb6, 0xbd,
  0xfc, 0x97, 0xdb, 0xbd, 0xbf, 0x95, 0xbb, 0x3d, 0xea, 0x3d, 0x46, 0xbd,
  0x2f, 0x1b, 0x19, 0xbc, 0x2a, 0x31, 0x06, 0x3c, 0x6a, 0xc5, 0x60, 0xbe,
  0x3b, 0xb4, 0x9a, 0x3c, 0x31, 0xba, 0x53, 0xb9, 0xc0, 0x70, 0x74, 0x3d,
  0xab, 0xa8, 0xb9, 0xbd, 0x6e, 0xba, 0x82, 0xbe, 0x5a, 0x23, 0x2f, 0xbb,
  0x69, 0x74, 0x9f, 0xbe, 0xf1, 0x8b, 0x04, 0xbe, 0x48, 0x79, 0xda, 0xbd,
  0xf0, 0x4e, 0x76, 0xbe, 0xff, 0xbc, 0xb0, 0xbd, 0xea, 0xd3, 0xc7, 0xbb,
  0x06, 0x1f, 0x70, 0x3c, 0xca, 0xb6, 0x8e, 0xbd, 0xe5, 0xea, 0x76, 0xbe,
  0x97, 0x31, 0x3c, 0x3d, 0x49, 0x4f, 0x16, 0xbf, 0x9b, 0xbd, 0xbf, 0xbe,
  0x6c, 0xab, 0x24, 0x3e, 0x03, 0x1a, 0x6f, 0xbd, 0x8a, 0xc9, 0xbd, 0xbd,
  0xbf, 0xf3, 0x8d, 0xbd, 0xf4, 0x8b, 0x03, 0xbd, 0xbf, 0x5d, 0x85, 0x3d,
  0x80, 0x23, 0x3c, 0xbd, 0x5e, 0xd7, 0xe0, 0x3c, 0x93, 0xb5, 0x6d, 0xbe,
  0x00, 0xea, 0x90, 0x3c, 0xb6, 0xc3, 0x1a, 0x3d, 0x5f, 0x39, 0xc5, 0xbc,
  0x38, 0xb0, 0xbd, 0x3c, 0xc1, 0x31, 0xad, 0xbc, 0x32, 0x4e, 0x64, 0x3d,
  0x29, 0x4d, 0x99, 0x3d, 0x28, 0x5d, 0x3e, 0xbf, 0x4c, 0x22, 0x5e, 0xbd,
  0x7c, 0x44, 0x89, 0xbb, 0xfe, 0x6b, 0x81, 0x3d, 0xae, 0x43, 0x04, 0xbe,
  0x76, 0xee, 0x91, 0x3d, 0xf6, 0x13, 0x8b, 0xbc, 0x32, 0x23, 0x90, 0xbe,
  0x1c, 0xd8, 0xc7, 0xbe, 0xbe, 0xef, 0x93, 0x3d, 0xb6, 0x3a, 0x1b, 0xbc,
  0x1a, 0xf2, 0x43, 0xbf, 0xd5, 0x82, 0x34, 0xbe, 0xaf, 0x8b, 0x0a, 0x3d,
  0xc2, 0xe8, 0x65, 0x3c, 0x78, 0x83, 0x92, 0x3d, 0xb0, 0x43, 0xc5, 0xbd,
  0xd6, 0xf3, 0xc3, 0xb9, 0xba, 0x71, 0x9b, 0x3c, 0xcc, 0xaf, 0xcb, 0xbd,
  0x52, 0x2b, 0x1f, 0x3e, 0x08, 0x3e, 0x90, 0x3d, 0x45, 0x88, 0xef, 0x3c,
  0x6e, 0xcd, 0xee, 0x3d, 0x74, 0x8b, 0x4a, 0x3d, 0xc2, 0x2f, 0x0c, 0x3d,
  0x5d, 0x7b, 0x93, 0xbd, 0x60, 0x23, 0x30, 0x3d, 0xf9, 0x77, 0xdd, 0x3d,
  0x64, 0x21, 0xa4, 0x3d, 0x54, 0xa2, 0xd4, 0x3a, 0xa1, 0xb6, 0x1a, 0x3b,
  0xd6, 0x26, 0x94, 0x3d, 0x44, 0x05, 0x67, 0xbb, 0xd7, 0x35, 0x67, 0x3d,
  0xc3, 0xb6, 0x56, 0xbc, 0x77, 0x02, 0x67, 0x3d, 0x3f, 0x54, 0xef, 0x3d,
  0x6c, 0x29, 0x4c, 0x3d, 0xb7, 0x0f, 0x2e, 0x3e, 0xee, 0xc1, 0x7b, 0xbd,
  0x44, 0x03, 0x38, 0x3c, 0x3c, 0x68, 0xac, 0xbd, 0xe7, 0xf3, 0x62, 0x3d,
  0x33, 0x31, 0x41, 0xbc, 0x0e, 0xdb, 0x36, 0x3d, 0xd2, 0xa2, 0x2b, 0xbd,
  0xd1, 0x3a, 0x86, 0x3d, 0x44, 0x45, 0x47, 0x3d, 0x7d, 0x6a, 0xc0, 0x3d,
  0xf9, 0xcc, 0xcf, 0x3b, 0x08, 0x7c, 0x14, 0xbd, 0x56, 0x2b, 0x93, 0x3d,
  0xf6, 0x9d, 0xd8, 0x3d, 0x97, 0xaf, 0xe4, 0x3c, 0xcb, 0xcd, 0x00, 0x3e,
  0xc1, 0x89, 0x40, 0xbd, 0x50, 0x07, 0xeb, 0xbd, 0x3a, 0xf0, 0x62, 0xbd,
  0x24, 0x91, 0xbc, 0x3d, 0xe2, 0xb2, 0xa7, 0x3d, 0xc0, 0x6c, 0x5e, 0xbb,
  0xcc, 0xcf, 0x81, 0x3d, 0x9f, 0xb1, 0xca, 0x3d, 0x44, 0xab, 0x25, 0xbd,
  0xeb, 0xd7, 0x9d, 0x3c, 0x96, 0xe0, 0x41, 0xbd, 0xd2, 0x40, 0x78, 0xbc,
  0x21, 0x06, 0x40, 0x3e, 0x4b, 0x2e, 0xfe, 0x3d, 0x57, 0x2c, 0x2b, 0xbd,
  0xbe, 0x08, 0x89, 0xbd, 0xcd, 0xd6, 0x04, 0x3e, 0x4c, 0xf1, 0xa4, 0x3d,
  0x07, 0xce, 0xab, 0x3c, 0x39, 0x0d, 0x8f, 0x3d, 0xad, 0xa7, 0x18, 0x3c,
  0x3b, 0x4e, 0x13, 0xbe, 0x20, 0xc9, 0xde, 0xbe, 0x29, 0x70, 0x26, 0xbe,
  0x4f, 0xc0, 0x03, 0x3e, 0xa7, 0x69, 0x79, 0xbd, 0x60, 0x86, 0x20, 0xbe,
  0xfb, 0xb1, 0x6a, 0xbd, 0x54, 0x14, 0xa3, 0xbd, 0xa3, 0xc1, 0x2c, 0xbd,
  0x29, 0x41, 0xf4, 0xbd, 0xf0, 0x63, 0xfe, 0xbd, 0xe9, 0x6b, 0xd0, 0xbe,
  0xad, 0xbf, 0xf5, 0xbd, 0x15, 0xd0, 0x83, 0xbb, 0x93, 0x20, 0x58, 0xbd,
  0x25, 0xa7, 0xae, 0xbd, 0x2b, 0x20, 0x12, 0x3e, 0x20, 0x62, 0x2f, 0x3c,
  0xb6, 0xda, 0x15, 0x3e, 0x04, 0x74, 0xa1, 0x3d, 0x77, 0x7b, 0x85, 0x3d,
  0xe4, 0x2c, 0xfe, 0x3d, 0x66, 0x14, 0xdf, 0xbd, 0xcc, 0x38, 0x0a, 0x3e,
  0xef, 0xab, 0xbf, 0x3c, 0xfc, 0xd0, 0x1c, 0x3e, 0xbe, 0x24, 0x05, 0x3e,
  0x61, 0x86, 0x80, 0x3d, 0xd7, 0x64, 0xb6, 0xbd, 0x2a, 0xf4, 0x3f, 0xbd,
  0xb2, 0xec, 0x17, 0x3e, 0x14, 0x87, 0xc4, 0x3c, 0x84, 0xfd, 0x18, 0x3d,
  0xed, 0x62, 0x9a, 0xbc, 0x58, 0xfa, 0xff, 0x3c, 0xad, 0xdc, 0xc2, 0x3d,
  0x7c, 0x5a, 0xa2, 0xbc, 0xc8, 0x61, 0x76, 0xbd, 0x2e, 0xe2, 0x38, 0xbc,
  0xdd, 0x0e, 0x46, 0x3d, 0x0f, 0x22, 0x99, 0x3c, 0xab, 0x82, 0xf4, 0x3d,
  0x99, 0xd2, 0xa1, 0x3d, 0xa9, 0x52, 0xbc, 0xbb, 0x7b, 0x60, 0xb1, 0x3d,
  0x72, 0x4f, 0x82, 0x3c, 0x85, 0xe4, 0x93, 0x3d, 0xb2, 0x82, 0x98, 0x3d,
  0xc2, 0x57, 0x8f, 0xbc, 0x12, 0xa2, 0x04, 0xbe, 0xd2, 0xf3, 0x03, 0xbe,
  0xb3, 0x38, 0xcd, 0xbd, 0x39, 0xff, 0x0c, 0xbe, 0x75, 0xf0, 0x18, 0x3d,
  0x2e, 0x40, 0x43, 0xbe, 0x5b, 0xfb, 0xdc, 0xbd, 0x3c, 0xb5, 0xc6, 0x3c,
  0xf6, 0x2a, 0x3d, 0xbd, 0x6d, 0x7b, 0x3b, 0xbd, 0xc5, 0x13, 0x23, 0xbe,
  0x79, 0x07, 0xe3, 0x3d, 0xfe, 0x8d, 0x15, 0x3e, 0x3a, 0x4e, 0x3d, 0xbd,
  0xe1, 0xac, 0x5b, 0xbb, 0xe7, 0x84, 0x90, 0xbd, 0x7c, 0x6d, 0x00, 0xbe,
  0x70, 0x70, 0x61, 0x3d, 0xbd, 0xb7, 0x3f, 0xbd, 0x7f, 0xa2, 0x61, 0xbe,
  0x9b, 0xef, 0x8c, 0x3d, 0xbd, 0xad, 0x17, 0xbe, 0xe4, 0xbb, 0xf5, 0xbd,
  0xa2, 0x5d, 0xd6, 0x3d, 0xcb, 0xd9, 0x01, 0xbd, 0x4e, 0x99, 0x54, 0x3d,
  0xbb, 0x4b, 0xa5, 0xbd, 0x4d, 0x67, 0x5f, 0x3e, 0xfa, 0x17, 0x35, 0x3e,
  0x90, 0x7f, 0x87, 0xbd, 0x4e, 0xe6, 0x46, 0xbc, 0x04, 0x86, 0x35, 0x3d,
  0x8f, 0x2f, 0xf5, 0xbb, 0x6b, 0x87, 0xfd, 0xbd, 0xf8, 0xdc, 0x05, 0x3e,
  0xb0, 0xbd, 0xd4, 0x3d, 0x79, 0xbb, 0x19, 0x3d, 0xf5, 0xf4, 0x1f, 0x3e,
  0xdc, 0x91, 0x68, 0xbd, 0x2c, 0x98, 0x79, 0xbd, 0x15, 0x3a, 0x78, 0x3d,
  0x6c, 0xea, 0x98, 0x3c, 0x56, 0xfe, 0x75, 0xbd, 0x1e, 0x93, 0x74, 0xbe,
  0x08, 0xcc, 0x60, 0xbd, 0x91, 0xd6, 0x76, 0x3c, 0x40, 0xb8, 0xb3, 0x3d,
  0x95, 0xc5, 0x3d, 0x3b, 0x08, 0x9f, 0xea, 0x3d, 0xd9, 0x64, 0xa3, 0xbe,
  0x85, 0x34, 0x8d, 0xbe, 0xde, 0x07, 0x87, 0x3d, 0xd9, 0x39, 0xc1, 0xbe,
  0xcf, 0xd5, 0xda, 0xbc, 0x7e, 0xc2, 0x86, 0xbe, 0x03, 0x2b, 0x07, 0xbe,
  0x19, 0xde, 0x97, 0x3e, 0x31, 0x4f, 0x35, 0xbd, 0x32, 0x1e, 0x9d, 0xbb,
  0xb5, 0x45, 0xb7, 0x3d, 0x06, 0xff, 0x99, 0xbc, 0xb3, 0x16, 0x19, 0xbf,
  0x5b, 0x5c, 0xb3, 0xbe, 0xcb, 0xe4, 0xa3, 0xbd, 0x15, 0x66, 0xce, 0xbe,
  0x4b, 0x84, 0xc0, 0xbe, 0xfe, 0x6d, 0xd1, 0x3d, 0xb2, 0x2b, 0xd9, 0xbd,
  0x68, 0x5e, 0xf7, 0xbd, 0x20, 0x42, 0x05, 0xbd, 0x42, 0x21, 0x42, 0xbd,
  0xb7, 0xb0, 0xaa, 0xbc, 0xea, 0x59, 0x43, 0x3d, 0x4a, 0xf8, 0xe8, 0x3c,
  0xfc, 0x5c, 0xac, 0x3d, 0x72, 0xa1, 0xf0, 0xbd, 0x51, 0xc4, 0x85, 0xbd,
  0x1f, 0x2f, 0xa8, 0x3a, 0x8f, 0xdc, 0x19, 0x3c, 0x1e, 0xf7, 0xae, 0x3c,
  0x05, 0xa3, 0xa2, 0xbd, 0x4a, 0x00, 0x19, 0x3e, 0x08, 0xf3, 0x50, 0x3d,
  0x7b, 0x64, 0xe1, 0xbc, 0xd0, 0xe1, 0x0e, 0x3e, 0x15, 0x64, 0x12, 0x3e,
  0x6e, 0x33, 0xf2, 0x3c, 0xe7, 0x50, 0x2a, 0x3d, 0x32, 0x0e, 0xf7, 0x3d,
  0xfa, 0x63, 0x18, 0x3e, 0x59, 0x2a, 0x7e, 0xbc, 0x1f, 0xda, 0xa6, 0x3d,
  0xff, 0x03, 0xd5, 0x3d, 0x11, 0xb5, 0x3d, 0x3e, 0x98, 0x60, 0x91, 0x3d,
  0x87, 0x6e, 0x43, 0xbd, 0x7c, 0x8f, 0x10, 0xbd, 0x2c, 0x62, 0xbb, 0xbd,
  0x21, 0x80, 0x02, 0xbe, 0x7a, 0xaa, 0xc5, 0xbd, 0x2d, 0x69, 0x49, 0x3d,
  0xa6, 0xce, 0x7c, 0x3d, 0xcb, 0x76, 0xc6, 0xbc, 0xb2, 0x63, 0xf2, 0x3c,
  0xd6, 0xe4, 0xb9, 0x3d, 0xfc, 0x98, 0x00, 0xbe, 0xb2, 0xe0, 0x8f, 0x3d,
  0xa0, 0x96, 0x4d, 0xbb, 0xdb, 0xce, 0x39, 0x3e, 0xef, 0xb5, 0x10, 0x3c,
  0x55, 0x6f, 0x44, 0xbb, 0x0f, 0x9f, 0x22, 0xbe, 0x58, 0xd2, 0x8e, 0x3d,
  0xa3, 0x90, 0x4f, 0x3b, 0x82, 0x59, 0xc1, 0xbd, 0x33, 0x9f, 0x4a, 0x3e,
  0x03, 0x84, 0xff, 0xbc, 0x53, 0xe5, 0x0a, 0xbf, 0x1e, 0x22, 0x09, 0x3e,
  0x81, 0x9b, 0x70, 0x3e, 0xa6, 0x35, 0x1c, 0xbf, 0x18, 0x1a, 0xef, 0xbd,
  0x2f, 0x4f, 0xb1, 0xbd, 0x24, 0x3e, 0xf8, 0xbd, 0xef, 0xb5, 0xe9, 0xbd,
  0x2e, 0x68, 0xbd, 0xbd, 0x4d, 0x0f, 0x07, 0xbe, 0x7f, 0xfa, 0xad, 0x3d,
  0xf5, 0x87, 0x92, 0xbc, 0xdc, 0x66, 0x78, 0x3c, 0xa7, 0x5a, 0x0a, 0x3e,
  0x42, 0x09, 0xc7, 0xbd, 0xf8, 0xef, 0x4e, 0xbe, 0x6b, 0xd3, 0x5b, 0xbe,
  0xc0, 0xdd, 0x38, 0xbc, 0xa1, 0x3c, 0x86, 0x3e, 0xa5, 0x5e, 0x5e, 0xbe,
  0xb2, 0x4e, 0x9b, 0xbb, 0x1a, 0x69, 0x97, 0xbe, 0xa0, 0x4e, 0x19, 0xbe,
  0x60, 0x53, 0x7e, 0xbe, 0x9f, 0x91, 0x3b, 0x3e, 0xc1, 0xeb, 0xb4, 0xbd,
  0x54, 0x91, 0xc9, 0xbc, 0xec, 0xe0, 0x1b, 0xbc, 0xcc, 0x9e, 0x45, 0xbc,
  0xf8, 0x5f, 0xd4, 0x3c, 0xab, 0x21, 0xa4, 0xba, 0x99, 0x48, 0x73, 0x3c,
  0x4a, 0x66, 0x2a, 0x3d, 0xe6, 0x93, 0x58, 0x3d, 0x8a, 0xb2, 0x27, 0xbd,
  0x23, 0xd7, 0x94, 0xbc, 0x1b, 0x3c, 0x8e, 0x3b, 0x54, 0xda, 0x50, 0x3d,
  0xcb, 0x8c, 0x94, 0xbc, 0x75, 0xec, 0x6f, 0x3d, 0x1c, 0xca, 0x96, 0x3d,
  0x24, 0x15, 0x8a, 0x3d, 0x77, 0x4e, 0x1c, 0xbe, 0xe8, 0x02, 0x83, 0xbd,
  0x14, 0x52, 0xde, 0xbd, 0xd4, 0xff, 0xae, 0xbc, 0x42, 0x43, 0x6d, 0xbe,
  0x7f, 0x5a, 0xbf, 0xbd, 0xfa, 0x4f, 0x5e, 0x3d, 0x92, 0x10, 0xcc, 0xbc,
  0x49, 0xed, 0x67, 0xbe, 0x77, 0x0c, 0xdf, 0x3d, 0xf9, 0xc0, 0x20, 0xbe,
  0xdf, 0xf4, 0x9a, 0x3d, 0x87, 0x83, 0xe4, 0xbd, 0xe3, 0x67, 0xa8, 0xbc,
  0x60, 0xe7, 0x1e, 0x3d, 0xa0, 0x3b, 0xf5, 0xbd, 0x59, 0xfc, 0x4e, 0x3e,
  0x99, 0xa7, 0xbb, 0x3d, 0x01, 0x86, 0x4e, 0x3e, 0x68, 0x69, 0xb8, 0x3d,
  0xc5, 0x90, 0x98, 0x3d, 0x1a, 0xfe, 0x80, 0x3e, 0xc8, 0x97, 0x83, 0x3d,
  0xd2, 0xfc, 0x40, 0x3e, 0x6c, 0x5c, 0x19, 0x3d, 0x98, 0x5e, 0xfe, 0x3d,
  0x2b, 0x7b, 0x87, 0x3e, 0xf0, 0x54, 0x06, 0x3e, 0xd9, 0x65, 0x28, 0x3d,
  0x55, 0x55, 0x0e, 0x3e, 0x54, 0x87, 0x2c, 0x3e, 0x4a, 0xf4, 0x20, 0x3e,
  0x9b, 0x7e, 0x1b, 0xbe, 0xfe, 0x61, 0x52, 0x3d, 0x45, 0xd8, 0xa0, 0xbe,
  0xa1, 0xdf, 0x15, 0xbd, 0x4b, 0x6f, 0xae, 0xbc, 0x2e, 0xfe, 0x0d, 0x3d,
  0xd5, 0x45, 0x35, 0xbd, 0xbe, 0xa0, 0x56, 0xbe, 0x4f, 0xac, 0xec, 0xbd,
  0x27, 0xba, 0x50, 0x3d, 0xcf, 0x16, 0x22, 0x3c, 0xe9, 0x83, 0x37, 0xbe,
  0xaf, 0x58, 0x99, 0x3e, 0x3f, 0xac, 0x96, 0xbc, 0x84, 0x10, 0x08, 0xbc,
  0x1e, 0x72, 0x93, 0xbd, 0x09, 0xf7, 0x6c, 0x3d, 0x18, 0xda, 0x05, 0x3e,
  0xef, 0xe5, 0xee, 0xbd, 0xc8, 0x13, 0xcc, 0x3d, 0xac, 0xf1, 0xb8, 0xbd,
  0x69, 0x23, 0xf2, 0xbd, 0x94, 0x98, 0x99, 0x3e, 0xdd, 0x6a, 0x88, 0xbc,
  0x91, 0xb9, 0x62, 0xbd, 0x07, 0xab, 0x73, 0x3c, 0x2b, 0x9b, 0xf7, 0x3b,
  0x38, 0x36, 0x26, 0x3d, 0xde, 0xa9, 0xb2, 0x3d, 0xe1, 0xe2, 0x06, 0x3e,
  0x62, 0xb8, 0x09, 0xbc, 0x6d, 0xf7, 0xbd, 0x3d, 0x18, 0xfd, 0xa5, 0x3c,
  0xd1, 0x4c, 0x97, 0xbd, 0xb3, 0xa3, 0x03, 0x3d, 0x13, 0x8d, 0xad, 0xbc,
  0xec, 0x52, 0xf8, 0x3c, 0xfc, 0x14, 0xeb, 0x3c, 0xf1, 0x12, 0xd9, 0x3a,
  0xcd, 0xa7, 0x27, 0x3d, 0x1e, 0x7f, 0x2b, 0x3d, 0x13, 0x44, 0xc7, 0xbc,
  0x6b, 0x32, 0xcc, 0x3c, 0xd2, 0xca, 0x0b, 0xbe, 0x84, 0x68, 0xa6, 0x3d,
  0xfe, 0x45, 0xe2, 0xbb, 0x91, 0xd8, 0x33, 0x3d, 0x9b, 0x93, 0x7f, 0xbd,
  0xe0, 0x0d, 0x92, 0x3b, 0x64, 0x3b, 0x23, 0x3b, 0xba, 0x91, 0xb5, 0x3d,
  0xe9, 0x9f, 0x20, 0x3e, 0xc0, 0x22, 0x91, 0x3d, 0x81, 0x05, 0x73, 0xbc,
  0xe9, 0xfe, 0xfa, 0xbd, 0xb1, 0xc9, 0x78, 0x3d, 0xeb, 0xea, 0xd0, 0xbd,
  0x56, 0x71, 0xe5, 0xbd, 0xbb, 0x67, 0xde, 0xbd, 0x88, 0xa3, 0xe2, 0xbc,
  0x78, 0x2c, 0xc6, 0x3c, 0x49, 0xc6, 0x00, 0xbd, 0xc8, 0x2f, 0xa0, 0x3d,
  0xd9, 0x8b, 0x28, 0xbd, 0x7c, 0xed, 0x31, 0xbd, 0xb3, 0x1a, 0x4a, 0x3e,
  0xec, 0x23, 0xb3, 0xbe, 0xc7, 0x45, 0xa8, 0xbe, 0x05, 0x13, 0x70, 0x3e,
  0x74, 0xcb, 0xaf, 0xbe, 0xdb, 0xb2, 0xcb, 0xbe, 0x78, 0x9f, 0x9e, 0xbd,
  0x76, 0xc5, 0x66, 0xbe, 0x91, 0x80, 0xe8, 0x3b, 0x01, 0x6b, 0xd3, 0xbe,
  0xd7, 0x00, 0x81, 0x3e, 0xa5, 0xfd, 0x0a, 0xbd, 0x44, 0xa3, 0x2f, 0x3e,
  0x57, 0x0b, 0xb5, 0xbe, 0x14, 0xe4, 0x07, 0xbf, 0x61, 0xe9, 0x0b, 0x3d,
  0x03, 0x00, 0xd4, 0xbd, 0x38, 0x9d, 0x08, 0x3e, 0xf9, 0x09, 0x4b, 0x3d,
  0x77, 0xe3, 0x10, 0xbe, 0x54, 0x8b, 0x2c, 0xbd, 0x07, 0x87, 0x09, 0x3e,
  0x22, 0xd3, 0xe2, 0x3a, 0x42, 0x3c, 0x8e, 0x3d, 0xe8, 0x6a, 0x61, 0x3d,
  0x02, 0x01, 0x16, 0x3e, 0x3b, 0x69, 0x8f, 0x3d, 0x70, 0xdc, 0xf5, 0x3d,
  0x30, 0x45, 0x8a, 0xbe, 0x45, 0x17, 0x08, 0xbe, 0x83, 0x4a, 0xf9, 0x3d,
  0x15, 0xa7, 0x37, 0x3e, 0x1a, 0x36, 0xd5, 0x3d, 0x2a, 0x17, 0x03, 0xbd,
  0x96, 0x6d, 0x94, 0x3c, 0x77, 0xf1, 0x0b, 0x3e, 0x33, 0x3d, 0x23, 0x3d,
  0x24, 0x92, 0xd8, 0x3c, 0xc3, 0x7d, 0x1f, 0x3d, 0xc1, 0xa1, 0x37, 0xbd,
  0x68, 0x9f, 0x83, 0x3e, 0xfb, 0x96, 0xcd, 0x3d, 0x76, 0x3e, 0xd3, 0x3c,
  0xd9, 0xfe, 0x41, 0x3d, 0x54, 0x14, 0x80, 0x3b, 0x86, 0xcf, 0x3f, 0x3d,
  0x35, 0x27, 0xbb, 0x3d, 0x83, 0x7c, 0xbd, 0x3d, 0x66, 0xd8, 0xd1, 0xbd,
  0xf9, 0x06, 0x0e, 0x3e, 0xde, 0x6f, 0x5e, 0x3e, 0xc8, 0x3e, 0x4b, 0x3d,
  0x8c, 0x79, 0x0c, 0xbe, 0x1b, 0x0d, 0xa9, 0x3d, 0xdc, 0x26, 0xa1, 0x3b,
  0x76, 0x66, 0x08, 0xbe, 0x76, 0xbe, 0xaa, 0x3d, 0x7c, 0xfa, 0x0e, 0x3d,
  0x09, 0x0b, 0xab, 0xbd, 0x0f, 0x10, 0xe3, 0xbd, 0xa4, 0x69, 0xe8, 0x3d,
  0x9c, 0x29, 0x38, 0xbd, 0xc6, 0x21, 0xb8, 0xbc, 0xdd, 0x6f, 0x5a, 0xbf,
  0x41, 0xd4, 0x92, 0xbd, 0x93, 0x83, 0x13, 0x3d, 0x89, 0x40, 0xca, 0xbe,
  0x31, 0x22, 0x01, 0xbf, 0x50, 0x3a, 0xf7, 0x3d, 0x10, 0xdf, 0xc3, 0x3e,
  0x9f, 0x86, 0x1f, 0xbf, 0x41, 0xac, 0x7b, 0xbe, 0x22, 0xd1, 0xca, 0xbd,
  0xee, 0x82, 0x2e, 0xbe, 0xb5, 0x5a, 0x8e, 0x3e, 0xb5, 0xaa, 0x4d, 0x3e,
  0xad, 0xe4, 0x03, 0xbe, 0xaf, 0x64, 0xc7, 0xbe, 0x15, 0xc3, 0xe4, 0xbe,
  0x60, 0xb4, 0x14, 0xbe, 0xf5, 0x5d, 0xb8, 0xbc, 0x2d, 0x49, 0xcb, 0xbb,
  0x8a, 0x02, 0x61, 0xbd, 0xa7, 0x30, 0xa2, 0x3d, 0xab, 0xc9, 0xd6, 0x3b,
  0x67, 0xdd, 0xd1, 0x3d, 0x1e, 0xdd, 0x93, 0xbd, 0xac, 0xea, 0x41, 0xbe,
  0xcf, 0xe4, 0x28, 0xbd, 0x54, 0x37, 0x2d, 0xbe, 0x9f, 0xb4, 0xce, 0xbe,
  0x09, 0x6e, 0x8c, 0xbe, 0x40, 0xbc, 0x2b, 0xbe, 0x50, 0xaf, 0xc4, 0xbd,
  0x77, 0x0a, 0x12, 0xbd, 0x7f, 0x8a, 0xd4, 0xbd, 0x47, 0x32, 0x4a, 0xbc,
  0x85, 0xb8, 0x98, 0xbb, 0xdd, 0x75, 0x27, 0x3d, 0x30, 0x39, 0xae, 0x3d,
  0x4e, 0x3f, 0xd8, 0xbd, 0x37, 0xc6, 0xb9, 0x3c, 0xe9, 0x94, 0xf0, 0xbd,
  0xf9, 0x0a, 0x05, 0xbd, 0xf1, 0xfe, 0x92, 0x3d, 0x78, 0x78, 0x38, 0xbd,
  0x42, 0x9a, 0xa3, 0xbd, 0x66, 0xce, 0x3b, 0xbe, 0x17, 0x1d, 0x1a, 0xbe,
  0x1e, 0x03, 0x95, 0xbc, 0xe2, 0xc6, 0x28, 0xbe, 0xaf, 0x5c, 0x98, 0x3d,
  0x16, 0xe9, 0x88, 0x3c, 0x66, 0x34, 0x01, 0xbc, 0x73, 0x3d, 0xe3, 0x3d,
  0x93, 0xc5, 0x22, 0xbc, 0x6e, 0x74, 0x35, 0x3b, 0x9f, 0xa8, 0x7a, 0xbd,
  0xf9, 0xb4, 0x20, 0x3d, 0xea, 0x58, 0x19, 0xbd, 0x76, 0xe9, 0x02, 0x3d,
  0x5c, 0xaa, 0xb9, 0x3d, 0x7b, 0x09, 0x43, 0xbd, 0x14, 0xef, 0xae, 0x3c,
  0x2e, 0xb9, 0x0c, 0xbb, 0xf6, 0x7f, 0x8c, 0x3d, 0x32, 0xd3, 0xef, 0x3d,
  0x8a, 0xe3, 0xff, 0xff, 0x04, 0x00, 0x00, 0x00, 0x00, 0x18, 0x00, 0x00,
  0x51, 0x76, 0x2b, 0xbd, 0x0f, 0xe6, 0x63, 0xbe, 0x4f, 0x2f, 0x3c, 0x3d,
  0x97, 0x41, 0xb2, 0xbe, 0x17, 0x41, 0x7f, 0x3d, 0xf7, 0x84, 0x7e, 0xbe,
  0x97, 0x40, 0x1a, 0x3e, 0x1a, 0xed, 0x96, 0xbe, 0x49, 0x92, 0xc3, 0xbd,
  0xba, 0x8e, 0x6b, 0x3e, 0x89, 0x6a, 0x5a, 0xbe, 0x4f, 0x6c, 0x3c, 0xbd,
  0xed, 0xdf, 0x36, 0x3d, 0xf2, 0x6f, 0x8c, 0xbe, 0x44, 0x42, 0xa5, 0xbe,
  0xf5, 0x9a, 0x6d, 0xbd, 0xd8, 0x02, 0x9b, 0x3e, 0x70, 0xfd, 0x78, 0xbe,
  0xa2, 0xec, 0x47, 0xbe, 0xf9, 0x61, 0x74, 0x3d, 0xb7, 0xe2, 0x3d, 0x3e,
  0xf3, 0x7e, 0x13, 0xbf, 0x6a, 0x59, 0xd5, 0xbe, 0x8b, 0x39, 0x50, 0x3e,
  0x63, 0xad, 0xc9, 0xbe, 0x51, 0x5f, 0x7b, 0xbd, 0xd2, 0x45, 0xc3, 0xbe,
  0x2f, 0xab, 0x46, 0xbd, 0xba, 0x7a, 0x9b, 0xbe, 0x42, 0xd3, 0x51, 0xbf,
  0x36, 0x7f, 0x9e, 0xbe, 0xdb, 0xc3, 0x52, 0xbf, 0xac, 0x3f, 0x7f, 0x3e,
  0x15, 0x01, 0x18, 0x3e, 0x5c, 0x5a, 0xd7, 0x3d, 0xde, 0x37, 0xf7, 0xbe,
  0xf4, 0x62, 0x88, 0xbf, 0x92, 0x39, 0x23, 0xbf, 0x7d, 0x0f, 0x56, 0x3c,
  0x8d, 0xb8, 0xf7, 0x3c, 0xc5, 0x54, 0x82, 0x3b, 0xd9, 0xc1, 0x50, 0x3e,
  0x08, 0xec, 0xcf, 0xbe, 0x43, 0x3f, 0xc0, 0x3d, 0x98, 0xba, 0x0a, 0xbe,
  0x11, 0xcf, 0x3a, 0xbe, 0xa6, 0xb8, 0x6e, 0xbd, 0x53, 0xf7, 0xe0, 0x3d,
  0xe8, 0x65, 0xee, 0x3c, 0x8f, 0xa8, 0x9f, 0xbe, 0x68, 0xaf, 0x4e, 0xbd,
  0xd1, 0x39, 0x44, 0x3f, 0x9d, 0x3b, 0xbb, 0xbd, 0xb9, 0x86, 0x0c, 0xbf,
  0xdf, 0x0e, 0x48, 0x3d, 0x0d, 0x7e, 0x0d, 0xbe, 0xc1, 0x91, 0x33, 0xbe,
  0x42, 0xff, 0x44, 0xbd, 0x6e, 0x8b, 0x7f, 0xbe, 0x40, 0xef, 0x4d, 0xbb,
  0x30, 0x74, 0x92, 0xbc, 0xde, 0x67, 0x8f, 0xbe, 0x9a, 0xa1, 0x81, 0xbd,
  0x62, 0xb9, 0xab, 0xbe, 0xa0, 0xd5, 0x91, 0xbe, 0x34, 0x52, 0x92, 0xbd,
  0xb5, 0x78, 0xd7, 0x3e, 0xe9, 0x45, 0x20, 0xbe, 0x62, 0x41, 0xbc, 0xbd,
  0x2f, 0x1f, 0x37, 0x3e, 0x93, 0x27, 0xdb, 0x3d, 0x0d, 0xd5, 0x69, 0xbd,
  0xff, 0xf2, 0x0e, 0xbf, 0x28, 0x39, 0x07, 0xbe, 0x4d, 0x64, 0x0b, 0x3e,
  0x23, 0x96, 0xc9, 0xbe, 0xc4, 0xac, 0xac, 0xbe, 0xca, 0xe9, 0x56, 0xbe,
  0x0f, 0xe8, 0xff, 0x3e, 0x66, 0x4e, 0x59, 0xbe, 0xca, 0xab, 0x8e, 0x3d,
  0xa4, 0x79, 0x00, 0x3f, 0xcf, 0x83, 0xf9, 0x3d, 0x0a, 0xad, 0x59, 0xbf,
  0x9d, 0x94, 0x5e, 0xbe, 0xa9, 0x3e, 0xf4, 0xbe, 0x11, 0x23, 0x4a, 0xbc,
  0xfe, 0xf7, 0x2e, 0x3e, 0xa6, 0x90, 0xb3, 0x3d, 0xe0, 0xc3, 0xad, 0xbe,
  0xee, 0xa8, 0x08, 0xbf, 0x61, 0x32, 0x14, 0x3d, 0x7d, 0xd2, 0xc3, 0x3d,
  0xdc, 0x5a, 0xdf, 0x3e, 0xa2, 0x50, 0x01, 0x3d, 0xb2, 0x93, 0x21, 0xbf,
  0x26, 0x32, 0x97, 0xbc, 0xaa, 0x6c, 0x33, 0x3c, 0x11, 0xc6, 0xa0, 0xbe,
  0xae, 0xc6, 0x21, 0x3f, 0x1a, 0x3c, 0x2c, 0xbf, 0xcc, 0x62, 0x20, 0xbf,
  0xa4, 0x1f, 0xcb, 0xbe, 0x21, 0xb1, 0xcf, 0xbe, 0x9e, 0xa1, 0xb0, 0x3d,
  0x4e, 0xbf, 0x82, 0x3f, 0x40, 0x5a, 0xaa, 0x3e, 0x71, 0x2c, 0x38, 0xbf,
  0xf9, 0x5e, 0xdc, 0xbe, 0x3f, 0xc9, 0xcc, 0xbe, 0x4c, 0x9b, 0xd3, 0x3e,
  0xfc, 0x9b, 0xbe, 0xbd, 0x73, 0x6b, 0x46, 0x3d, 0xbe, 0xc1, 0xd0, 0x3e,
  0x60, 0xbd, 0xcf, 0xbe, 0x28, 0xf8, 0x32, 0xbe, 0xf3, 0x89, 0xc4, 0x3d,
  0xdf, 0x8f, 0x1d, 0xbf, 0x6b, 0xb6, 0x06, 0xbe, 0x1c, 0x6d, 0x9f, 0x3e,
  0xff, 0x14, 0x66, 0xbd, 0xa5, 0x97, 0xf1, 0xbe, 0x15, 0x22, 0x45, 0x3d,
  0x2a, 0xaf, 0xe4, 0xbe, 0x64, 0xa1, 0x1f, 0x3c, 0x11, 0xc5, 0xc5, 0xbf,
  0xf6, 0x21, 0x0b, 0x3e, 0x97, 0x92, 0xe8, 0xbd, 0xc2, 0xc3, 0x50, 0xbd,
  0x78, 0x0e, 0xa6, 0xbc, 0x56, 0x16, 0xca, 0x3e, 0x05, 0x09, 0x46, 0x3f,
  0xc6, 0xd4, 0x7e, 0xbd, 0xa5, 0xf8, 0xaf, 0xbe, 0xc8, 0x6a, 0x49, 0x3e,
  0x85, 0x9e, 0x0d, 0x3e, 0xc1, 0x52, 0x04, 0xbf, 0xd2, 0x5e, 0xdd, 0xbe,
  0xee, 0xa7, 0xed, 0xbe, 0xbf, 0x5f, 0x17, 0x3e, 0xad, 0xa4, 0x8e, 0xbe,
  0x80, 0x39, 0x9e, 0xbd, 0xe2, 0xf2, 0xc5, 0x3d, 0x2c, 0x63, 0x3b, 0xbf,
  0x19, 0xff, 0x92, 0x3e, 0x76, 0x02, 0x8a, 0xbe, 0x58, 0x52, 0x86, 0x3e,
  0xd5, 0x0c, 0x87, 0xbe, 0xab, 0x1f, 0x57, 0x3d, 0xe6, 0x55, 0x4e, 0xbd,
  0xde, 0x72, 0x17, 0xbe, 0x40, 0x65, 0x40, 0x3e, 0x0b, 0xbe, 0x50, 0x3e,
  0xe5, 0xd2, 0x60, 0x3d, 0x3e, 0x13, 0x4f, 0xbe, 0xcc, 0xc0, 0xba, 0x3d,
  0x4c, 0x35, 0x2a, 0xbe, 0x3f, 0xc5, 0xcb, 0x3d, 0x23, 0x3d, 0x85, 0x3e,
  0x24, 0x5d, 0x01, 0x3e, 0x69, 0xe8, 0x84, 0x3e, 0x29, 0x72, 0xb9, 0x3e,
  0x9e, 0xaa, 0x12, 0xbe, 0x6b, 0x42, 0x31, 0x3e, 0x33, 0x04, 0x0a, 0x3d,
  0x89, 0x5d, 0xa0, 0x3e, 0x42, 0xb5, 0x57, 0xbc, 0x18, 0xdb, 0x6d, 0xbe,
  0x37, 0xf0, 0x46, 0x3e, 0x74, 0xdf, 0x1b, 0xbe, 0x6b, 0x72, 0xe8, 0x3d,
  0x28, 0x02, 0x15, 0xbf, 0x9c, 0xb1, 0xcf, 0xbd, 0x3b, 0x74, 0xef, 0x3d,
  0x60, 0xbc, 0x64, 0x3d, 0x07, 0x80, 0x1b, 0x3e, 0x60, 0x35, 0xaf, 0xbe,
  0x8c, 0x8b, 0x3c, 0x3e, 0x76, 0x08, 0x0c, 0xbe, 0xfb, 0x94, 0x4b, 0x3e,
  0x2e, 0x6b, 0x74, 0xbe, 0x7b, 0x84, 0xc2, 0xbe, 0xdc, 0xa2, 0x3a, 0xbe,
  0x19, 0x06, 0x45, 0xbd, 0xa2, 0xb5, 0x82, 0x3e, 0xa0, 0x75, 0xe4, 0xbe,
  0x21, 0xa3, 0x6a, 0xbe, 0xe0, 0xf9, 0x85, 0xbe, 0x9c, 0xb0, 0x3c, 0xbe,
  0x24, 0xb6, 0xb0, 0xbe, 0xa2, 0x4c, 0xdb, 0x3e, 0x3a, 0xd3, 0x90, 0x3c,
  0x12, 0xd4, 0x8b, 0xbd, 0x5c, 0xff, 0xdd, 0xbe, 0x12, 0x0a, 0x21, 0xbf,
  0x66, 0x5e, 0x78, 0x3f, 0xb6, 0xdf, 0x07, 0xbf, 0x5d, 0x61, 0xe3, 0x3e,
  0x5d, 0x48, 0xea, 0xbc, 0xa0, 0xcc, 0x7d, 0x3e, 0x20, 0x82, 0xb4, 0x3e,
  0x59, 0x91, 0x0b, 0xbf, 0x91, 0xc7, 0xff, 0x3d, 0xd9, 0x2f, 0x08, 0x3e,
  0x2a, 0xd9, 0xaa, 0xbd, 0x05, 0xe2, 0x3b, 0xbd, 0xb8, 0x18, 0xac, 0xbe,
  0xcd, 0xd3, 0x8f, 0x3e, 0xbc, 0x3c, 0x89, 0xbe, 0xbf, 0xb8, 0xa8, 0xbd,
  0xaa, 0x6a, 0x20, 0x3f, 0xac, 0x8c, 0x26, 0xbe, 0xc7, 0x85, 0x42, 0xbe,
  0xb4, 0x2c, 0xd8, 0xbe, 0xbc, 0x99, 0xa8, 0xbd, 0x0f, 0x88, 0xf2, 0xbd,
  0xef, 0x7c, 0x87, 0xbe, 0xa3, 0x5e, 0x15, 0x3d, 0xf5, 0x4b, 0x11, 0xbe,
  0x12, 0x01, 0x50, 0x3e, 0x7b, 0xf3, 0x8f, 0x3d, 0xdc, 0x4b, 0xf6, 0xbe,
  0x11, 0x58, 0xe3, 0xbe, 0x6d, 0x70, 0x3c, 0xbe, 0x15, 0x86, 0xae, 0xbd,
  0x78, 0x31, 0xe3, 0x3d, 0xd3, 0xa3, 0x7e, 0xbe, 0x90, 0xca, 0x8c, 0x3c,
  0x50, 0xc1, 0xb0, 0x3d, 0xfe, 0x7b, 0xa1, 0xbe, 0x2d, 0x0a, 0x39, 0x3c,
  0xc1, 0x48, 0x05, 0x3d, 0x6a, 0x03, 0x29, 0xbe, 0xb3, 0x73, 0x49, 0x3e,
  0x18, 0x58, 0x17, 0xbf, 0xd0, 0xf4, 0x27, 0xbc, 0xcf, 0x4b, 0xb9, 0x3e,
  0x47, 0xf5, 0x84, 0x3e, 0x06, 0x47, 0x1e, 0xbf, 0x3b, 0x3c, 0x5b, 0xbe,
  0x7e, 0xae, 0x30, 0x3c, 0x1f, 0xf0, 0xdf, 0xbd, 0x10, 0x8c, 0xb6, 0xbe,
  0x58, 0x48, 0x5d, 0xbe, 0xfd, 0xe2, 0x81, 0xbd, 0xf6, 0xae, 0x0b, 0xbd,
  0xa2, 0x63, 0x31, 0xbc, 0xea, 0x6a, 0x40, 0xbe, 0xef, 0xa0, 0x6f, 0xbd,
  0x87, 0x17, 0x83, 0xbe, 0xca, 0xc5, 0x7e, 0xbf, 0xd1, 0x19, 0xc9, 0x3e,
  0x8c, 0x16, 0xec, 0x3d, 0x3f, 0x91, 0xa3, 0xbe, 0x14, 0x15, 0xbf, 0xbe,
  0x7e, 0x02, 0xcb, 0x3e, 0xad, 0x22, 0xa1, 0x3e, 0x02, 0x1e, 0x2d, 0x3e,
  0x69, 0xb5, 0xfd, 0xbe, 0x8d, 0xc6, 0x0a, 0xbd, 0x28, 0xa8, 0x83, 0xbe,
  0x0b, 0xbb, 0x10, 0x37, 0x49, 0x3a, 0x31, 0xbf, 0x9d, 0x8b, 0xb5, 0x3e,
  0xf9, 0x0a, 0x05, 0xbf, 0x7f, 0x8e, 0xa7, 0x3f, 0x1a, 0x2c, 0x27, 0xbc,
  0xb8, 0x25, 0x03, 0xbf, 0x70, 0xec, 0xdd, 0xbc, 0xef, 0xc3, 0xd0, 0xbd,
  0xd6, 0xaa, 0xb8, 0xbd, 0xb5, 0x5e, 0x13, 0xbf, 0xf1, 0x2d, 0x56, 0x3e,
  0x49, 0xf3, 0x92, 0x3e, 0x32, 0x86, 0x06, 0xbf, 0x6d, 0xc3, 0x31, 0x3d,
  0xf5, 0x4b, 0x0e, 0x3f, 0x7d, 0x8d, 0x66, 0xbf, 0xab, 0x69, 0xe6, 0xbe,
  0x1a, 0xf5, 0x4b, 0x3f, 0x94, 0x02, 0x11, 0xbf, 0x6d, 0x76, 0x93, 0xbe,
  0xcd, 0x51, 0x2c, 0x3e, 0xe1, 0xb9, 0x1e, 0xbf, 0x8b, 0xf4, 0x12, 0x3e,
  0x19, 0x24, 0x57, 0xbf, 0x2c, 0x8c, 0x9f, 0xbe, 0x3e, 0x67, 0x3d, 0xbd,
  0xdb, 0x5b, 0x77, 0x3e, 0xdd, 0xea, 0x43, 0xbe, 0xa1, 0xac, 0xad, 0x3e,
  0x5d, 0xc2, 0xb5, 0xbe, 0x49, 0x57, 0x89, 0x3e, 0x22, 0x86, 0x03, 0x3f,
  0x76, 0x1f, 0xa0, 0xbe, 0x3d, 0xec, 0x9b, 0xbe, 0xf5, 0x79, 0x67, 0x3e,
  0x97, 0xca, 0x79, 0xbe, 0xf1, 0xa6, 0x2b, 0x3d, 0x3e, 0x83, 0xf3, 0x3d,
  0xb0, 0x98, 0xea, 0xbe, 0xe5, 0x14, 0x8c, 0x3e, 0x21, 0x39, 0xe5, 0xbe,
  0x20, 0x03, 0xae, 0x3d, 0x3d, 0x22, 0xbc, 0x3e, 0xa8, 0xa5, 0xb0, 0xbd,
  0xc5, 0x85, 0xbb, 0xbe, 0x8f, 0x5f, 0xd7, 0xbc, 0xd6, 0x4a, 0x42, 0x3e,
  0x5b, 0x63, 0x29, 0x3f, 0x3f, 0x2b, 0x63, 0xbe, 0x59, 0x9b, 0xc0, 0xbe,
  0x7c, 0xf3, 0x18, 0xbe, 0x65, 0xd6, 0xcd, 0xbc, 0xdd, 0xb7, 0xb2, 0x3b,
  0x01, 0x0a, 0x00, 0xbf, 0x2d, 0x8d, 0xb9, 0xbd, 0x36, 0xff, 0xe6, 0xbe,
  0xc5, 0xed, 0x70, 0x3d, 0x8c, 0xdd, 0x4f, 0x3e, 0xfd, 0x35, 0x4f, 0x3e,
  0x06, 0x08, 0xac, 0x3e, 0xa1, 0x68, 0x7c, 0x3e, 0x28, 0xad, 0x62, 0xbe,
  0x5b, 0xf8, 0xe9, 0xbe, 0x18, 0xc4, 0xd2, 0xbe, 0xd1, 0xcd, 0xe2, 0x3e,
  0x3f, 0xfa, 0xd7, 0xbe, 0x8b, 0x2b, 0xba, 0xbe, 0xb9, 0x11, 0xc0, 0xbe,
  0xa1, 0xc9, 0xf6, 0xbc, 0x29, 0x5a, 0xee, 0xbe, 0xa9, 0xbf, 0x7a, 0xbe,
  0x32, 0x38, 0x5e, 0xbe, 0xa0, 0x44, 0x80, 0x3d, 0xcd, 0xc7, 0xcc, 0xbd,
  0xec, 0x68, 0xa4, 0x3e, 0x20, 0xe9, 0x35, 0xbe, 0x8d, 0x40, 0x8d, 0x3d,
  0xcd, 0xcf, 0x2c, 0x3c, 0xbb, 0xc6, 0xd1, 0x3d, 0x2e, 0xd0, 0xe2, 0xbd,
  0xb4, 0x5f, 0x02, 0xbc, 0x85, 0x80, 0x9e, 0x3d, 0x1b, 0x0f, 0x26, 0xbb,
  0xe5, 0xf8, 0x1a, 0xbe, 0xaf, 0xca, 0xca, 0xbe, 0xeb, 0x47, 0xf9, 0x3e,
  0x56, 0x4d, 0x47, 0x3e, 0x38, 0x1a, 0xf4, 0xbe, 0xd1, 0x62, 0x42, 0xbe,
  0xed, 0x00, 0x72, 0x3e, 0x37, 0x98, 0x73, 0x3e, 0x2c, 0x83, 0x24, 0x3c,
  0x1c, 0x6a, 0xf4, 0xbd, 0x63, 0xa5, 0xb8, 0xbd, 0x18, 0x1e, 0xa0, 0x3e,
  0x45, 0x27, 0x28, 0xbe, 0xe5, 0x23, 0x42, 0xbc, 0xb4, 0x5b, 0x56, 0x3e,
  0x93, 0x54, 0xb7, 0xbe, 0x9f, 0xed, 0x4a, 0x3f, 0x9c, 0x7b, 0xd2, 0xbd,
  0xf1, 0x36, 0xb4, 0xbe, 0x7f, 0x17, 0xb2, 0x3d, 0x18, 0x3e, 0x65, 0x3d,
  0x3d, 0x7b, 0xcf, 0xbe, 0xfe, 0x2f, 0x0a, 0xbf, 0x08, 0xe5, 0xb8, 0x3c,
  0x4f, 0x0d, 0x5b, 0x3e, 0x1e, 0x66, 0x8c, 0xbe, 0x40, 0x0c, 0xfb, 0x3d,
  0xbc, 0x6b, 0xba, 0x3e, 0xad, 0x50, 0x1e, 0xbf, 0xb1, 0x52, 0x13, 0xbe,
  0xa0, 0xe4, 0x56, 0x3f, 0x9e, 0xea, 0x57, 0xbe, 0x5e, 0x49, 0x07, 0xbc,
  0x1c, 0xc5, 0x1e, 0x3e, 0x91, 0xbc, 0xf2, 0xbe, 0xb5, 0x19, 0x7b, 0x3e,
  0xdd, 0xd0, 0x87, 0xbd, 0x23, 0x13, 0xb2, 0x3d, 0xba, 0x8b, 0x1d, 0xbd,
  0xa6, 0x19, 0xd0, 0x3d, 0x42, 0x8f, 0x04, 0x3f, 0x0f, 0xc4, 0x5d, 0x3e,
  0x8a, 0x2f, 0x09, 0x3f, 0x8f, 0x86, 0x0f, 0xbe, 0x02, 0x1b, 0xb8, 0xbe,
  0x04, 0x1b, 0x73, 0xbd, 0x2a, 0x5d, 0xd2, 0xbe, 0x0c, 0x86, 0x55, 0x3e,
  0x89, 0x83, 0x1d, 0x3d, 0x4d, 0xe5, 0x93, 0xbe, 0x05, 0x21, 0x26, 0xbe,
  0x20, 0xf1, 0x64, 0xbe, 0x44, 0x12, 0x95, 0x3e, 0x7a, 0x9b, 0x61, 0x3f,
  0xa3, 0xdb, 0xd4, 0xbd, 0x3d, 0xce, 0x1b, 0xbe, 0x51, 0x98, 0x34, 0xbe,
  0x56, 0xe3, 0xb7, 0x3e, 0x25, 0x1b, 0xe9, 0x3e, 0x06, 0x7b, 0x81, 0xbf,
  0xc9, 0x46, 0x02, 0xbf, 0x9f, 0xce, 0x06, 0x3e, 0xd6, 0x27, 0x4f, 0xbe,
  0x8b, 0x7b, 0xa1, 0x3e, 0x2f, 0x23, 0x38, 0xbd, 0x9b, 0x0c, 0x68, 0xbd,
  0x6e, 0x79, 0x14, 0xbe, 0x6a, 0x1f, 0xb8, 0xbe, 0x98, 0x2d, 0x2b, 0xbf,
  0xf3, 0x25, 0xb8, 0xbd, 0xa5, 0x49, 0x16, 0xbe, 0x82, 0x28, 0x0a, 0xbd,
  0x5b, 0x3f, 0xd3, 0x3e, 0x2e, 0xc6, 0xd8, 0xbe, 0x85, 0x83, 0xea, 0x3e,
  0x28, 0x12, 0xef, 0xbe, 0xc2, 0x3f, 0xdb, 0xbe, 0xc5, 0x65, 0xb2, 0x3d,
  0xfd, 0x3a, 0xa9, 0x3e, 0x96, 0x75, 0x45, 0x3f, 0x7e, 0x6d, 0x2f, 0x3e,
  0x8e, 0xbe, 0x07, 0xbf, 0x9b, 0xc2, 0x46, 0x3e, 0x0c, 0xda, 0x8a, 0xbe,
  0xf2, 0xb4, 0xc7, 0xbe, 0xa3, 0xeb, 0x9d, 0xbe, 0x47, 0x75, 0x9e, 0x3e,
  0x88, 0xd5, 0x37, 0xbf, 0x72, 0xc9, 0x2c, 0xbf, 0x89, 0xd0, 0xa4, 0xbe,
  0xfe, 0xf1, 0x84, 0xbe, 0x34, 0x9b, 0x34, 0xbe, 0x76, 0x61, 0x99, 0xbe,
  0x59, 0xda, 0xc5, 0xbe, 0xcb, 0x03, 0x04, 0xbf, 0x0e, 0x52, 0xd7, 0xbd,
  0x38, 0x0a, 0xec, 0x3d, 0xe8, 0xf7, 0x4e, 0xbe, 0xca, 0xdb, 0xb2, 0x3e,
  0x5b, 0x61, 0x43, 0xbd, 0xd5, 0x8b, 0x47, 0x3e, 0x2a, 0x1b, 0x96, 0x3e,
  0xf0, 0x19, 0x89, 0xbd, 0x13, 0x68, 0xee, 0xbd, 0xd7, 0xbd, 0xa2, 0xbe,
  0xd5, 0x1b, 0x3a, 0xbf, 0x36, 0x94, 0xf8, 0x3e, 0x6b, 0x3a, 0xb7, 0x3d,
  0x1d, 0xf1, 0x0b, 0xbf, 0x90, 0x69, 0xe4, 0xbe, 0xe4, 0xc9, 0xc3, 0xbd,
  0x97, 0x11, 0x97, 0xbd, 0xe9, 0x90, 0xc5, 0xbe, 0xbc, 0x2a, 0x0c, 0xbf,
  0x0e, 0x27, 0x3e, 0xbd, 0x0c, 0x14, 0xef, 0xbd, 0x22, 0x4b, 0x9a, 0x3e,
  0x5b, 0x78, 0x96, 0xbe, 0x1e, 0x7e, 0x1b, 0xbf, 0x6e, 0xba, 0xae, 0xbe,
  0x63, 0x0e, 0xc2, 0xbe, 0xc5, 0x8f, 0x79, 0xbe, 0x71, 0x2a, 0x80, 0x3c,
  0xce, 0xd0, 0xd7, 0xbe, 0x8c, 0x7c, 0x39, 0xbf, 0x12, 0x00, 0xed, 0xbe,
  0x40, 0xa3, 0x7e, 0x3e, 0xeb, 0x54, 0xdc, 0xbe, 0x68, 0xa7, 0xea, 0xbe,
  0x89, 0x57, 0xc9, 0x3c, 0x74, 0x51, 0x04, 0x3e, 0xf8, 0x28, 0x17, 0x3e,
  0xd5, 0xb4, 0xa7, 0x3e, 0x94, 0xa5, 0xd8, 0x3c, 0x25, 0x89, 0x57, 0xbf,
  0x58, 0x6a, 0xc3, 0x3d, 0xb3, 0x18, 0x0c, 0x3f, 0x11, 0xdf, 0x0f, 0xbd,
  0xc6, 0x40, 0x62, 0xbf, 0xc5, 0x02, 0x94, 0xbd, 0x71, 0xfc, 0x37, 0xbe,
  0xab, 0xe6, 0x08, 0xbf, 0x8c, 0x7e, 0xbd, 0xbe, 0xca, 0xe2, 0x71, 0x3e,
  0x15, 0x9c, 0x59, 0x3e, 0xa0, 0x84, 0xe7, 0xbd, 0x54, 0xe5, 0x47, 0x3c,
  0x4d, 0x79, 0x2d, 0xbf, 0xb9, 0xab, 0x41, 0x3c, 0xff, 0x14, 0x02, 0x3f,
  0x32, 0x63, 0xc4, 0x3e, 0x8f, 0x42, 0x9b, 0x3e, 0x55, 0xcc, 0x34, 0x3e,
  0x6b, 0xc0, 0xe0, 0xbe, 0x4d, 0x3b, 0xe5, 0x3e, 0x46, 0x45, 0x5f, 0xbe,
  0xed, 0x53, 0xa9, 0x3d, 0x59, 0xd9, 0xcd, 0x3e, 0x8b, 0x33, 0xac, 0xbe,
  0xe1, 0x9b, 0xa8, 0x3d, 0xee, 0x12, 0x13, 0xbe, 0x1b, 0x2b, 0x6c, 0xbe,
  0xf7, 0xc8, 0xf2, 0xbd, 0x52, 0xdf, 0xe9, 0xbd, 0x06, 0xc7, 0x17, 0x3d,
  0xa2, 0xd1, 0x0e, 0xbf, 0x3c, 0xf4, 0x50, 0xbe, 0x72, 0x7b, 0x86, 0xbe,
  0x5f, 0x76, 0xcb, 0xbe, 0xf4, 0x56, 0xe3, 0xbe, 0x7f, 0x32, 0x07, 0x3d,
  0x0d, 0xa9, 0x30, 0x3f, 0x44, 0x73, 0x78, 0xbf, 0x19, 0x60, 0x89, 0xbe,
  0x16, 0x38, 0x49, 0x3f, 0x19, 0xf0, 0x4a, 0xbf, 0xad, 0xed, 0xb0, 0xbd,
  0x90, 0x35, 0xdf, 0xbe, 0x02, 0x72, 0xff, 0xbe, 0xb8, 0xba, 0xda, 0x3e,
  0x5c, 0xcc, 0x1b, 0xbe, 0xd5, 0xfb, 0x12, 0xbf, 0x84, 0x49, 0x90, 0xbf,
  0x5f, 0xa0, 0x8f, 0x3e, 0x6b, 0xa8, 0xf5, 0x3c, 0xf8, 0xcd, 0x9b, 0xbb,
  0x0d, 0x94, 0x00, 0xbf, 0x06, 0x7e, 0x96, 0x3e, 0x1e, 0xdf, 0x4f, 0xbd,
  0x4f, 0xdb, 0x54, 0xbe, 0xbd, 0x02, 0x1b, 0x3f, 0x0c, 0x98, 0x23, 0xbe,
  0x89, 0x11, 0x67, 0xbe, 0xa8, 0x9f, 0x0e, 0xbf, 0xc4, 0x65, 0xa0, 0xbe,
  0x24, 0x62, 0xa5, 0x3e, 0xbf, 0x88, 0xb8, 0xbe, 0x12, 0xa2, 0xaa, 0xbe,
  0xbe, 0x5a, 0xa3, 0xbe, 0xd5, 0x07, 0x8e, 0x3e, 0x57, 0x42, 0x25, 0xbe,
  0x1c, 0x34, 0x7e, 0xbe, 0xc7, 0x5f, 0x9c, 0xbe, 0x49, 0x43, 0x33, 0x3e,
  0xf8, 0x61, 0x20, 0xbf, 0xc5, 0x03, 0x98, 0xbd, 0xea, 0x54, 0x8d, 0x3e,
  0x0a, 0x8a, 0xbd, 0xbe, 0x9c, 0x6f, 0xc9, 0x3d, 0x25, 0xdf, 0x2f, 0xbe,
  0x5e, 0x74, 0x74, 0xbe, 0x56, 0x6a, 0x9c, 0x3d, 0xf4, 0x3b, 0x82, 0x3c,
  0x53, 0xcd, 0x4f, 0xbe, 0x96, 0xff, 0x3d, 0xbe, 0x28, 0x6e, 0x88, 0x3e,
  0xb5, 0xed, 0x61, 0x3e, 0xed, 0x5d, 0x62, 0x3e, 0x24, 0x38, 0x9a, 0x3e,
  0x1d, 0x35, 0x2f, 0xbf, 0xd2, 0x78, 0xa9, 0xbe, 0xbb, 0x7e, 0x23, 0xbc,
  0x28, 0x17, 0x7b, 0x3d, 0xb7, 0xfa, 0x32, 0x3e, 0x19, 0x46, 0x8b, 0xbd,
  0x20, 0x49, 0xa2, 0xbb, 0xff, 0x17, 0x9a, 0x3d, 0x9a, 0xbd, 0x4f, 0x3d,
  0x83, 0x43, 0xe5, 0xbe, 0xbf, 0x88, 0x33, 0x3e, 0xe3, 0x02, 0x89, 0xbd,
  0x78, 0x25, 0x27, 0xbe, 0x63, 0x5e, 0x7b, 0x3f, 0xde, 0x58, 0x1a, 0x3d,
  0x9d, 0x23, 0x54, 0x3f, 0x19, 0xaa, 0xa7, 0x3d, 0x98, 0x95, 0x98, 0x3e,
  0xc6, 0x4a, 0x4d, 0xbf, 0xf1, 0xc6, 0x91, 0xbe, 0x45, 0xe9, 0x22, 0xbf,
  0x58, 0xfb, 0xf1, 0xbd, 0x76, 0x3d, 0x7e, 0xbf, 0x6a, 0xb3, 0x2d, 0xbf,
  0xd2, 0xce, 0xef, 0xbe, 0x03, 0x45, 0x7b, 0xbf, 0xee, 0x82, 0xbe, 0xbe,
  0x0a, 0x89, 0x76, 0xbd, 0x42, 0x4f, 0x8b, 0x3e, 0xc2, 0xe2, 0x87, 0xbf,
  0x9e, 0x61, 0xf5, 0x3e, 0x0b, 0xf6, 0x86, 0xbf, 0x2d, 0x93, 0xde, 0x3e,
  0xf1, 0xfd, 0xc9, 0xbe, 0xc9, 0xd5, 0x10, 0x3f, 0x6e, 0xfe, 0x9b, 0xbe,
  0x22, 0x28, 0xf4, 0xbe, 0xdd, 0x91, 0x2c, 0x3e, 0x49, 0xbd, 0x38, 0xbf,
  0xf2, 0x7a, 0x17, 0xbf, 0xdd, 0x43, 0xec, 0xbe, 0x1b, 0x5a, 0x3e, 0xbf,
  0x8a, 0x82, 0xe3, 0xbd, 0x76, 0x5f, 0x09, 0xbf, 0x1e, 0x0f, 0xad, 0x3e,
  0xe0, 0x10, 0x1d, 0xbe, 0x04, 0x94, 0xaa, 0x3e, 0xfb, 0x57, 0xff, 0xbe,
  0xba, 0x42, 0x81, 0x3e, 0xd9, 0x9c, 0xcb, 0x3d, 0xdf, 0x18, 0xeb, 0x3c,
  0x09, 0x4c, 0xf8, 0xbd, 0xca, 0x19, 0xa5, 0xbe, 0x4d, 0xe0, 0x36, 0x3d,
  0xa5, 0x83, 0xe3, 0xbd, 0xbb, 0xe7, 0x12, 0xbe, 0xef, 0xc8, 0xb3, 0xbe,
  0xc3, 0x85, 0x72, 0xbe, 0x6c, 0x65, 0x9d, 0xbe, 0xfc, 0x1b, 0xfd, 0xbe,
  0x02, 0x43, 0x11, 0xbe, 0x75, 0xe7, 0x86, 0x3e, 0x9a, 0xc7, 0x17, 0x3f,
  0x33, 0x3a, 0x4b, 0x3f, 0x82, 0xb8, 0x2b, 0xbe, 0x44, 0x30, 0x9d, 0xbe,
  0x12, 0xc1, 0x9d, 0x3d, 0x68, 0xe1, 0xc4, 0xbe, 0x88, 0xd3, 0xe8, 0xbe,
  0xef, 0xce, 0xb9, 0x3e, 0xc7, 0xd9, 0x04, 0x3f, 0xb5, 0x00, 0x4d, 0xbe,
  0xf2, 0xcf, 0x14, 0xbf, 0xdc, 0x22, 0x0c, 0x3f, 0x72, 0xed, 0x73, 0x3f,
  0x95, 0x05, 0xd0, 0xbe, 0x64, 0x3e, 0x00, 0x3f, 0xb5, 0xac, 0x30, 0x3f,
  0x82, 0x6b, 0xdf, 0xbd, 0x5a, 0x5c, 0x86, 0xbe, 0x4a, 0x24, 0xa5, 0xbd,
  0xaf, 0xf7, 0x0c, 0xbf, 0x6a, 0xe7, 0x50, 0x3e, 0x3f, 0xaf, 0x09, 0xbd,
  0x07, 0xa4, 0x6b, 0x3e, 0x8f, 0x1c, 0xe2, 0x3d, 0xb6, 0x04, 0xb4, 0x3c,
  0xa7, 0xc5, 0xbc, 0xbe, 0x0b, 0x72, 0x2f, 0xbf, 0x7c, 0x4b, 0x13, 0x3f,
  0x2f, 0xd2, 0x04, 0xbf, 0x19, 0x0b, 0x91, 0xbd, 0x33, 0xdb, 0x3c, 0xbf,
  0xc3, 0x45, 0x95, 0x3e, 0x30, 0xe3, 0x6e, 0xbe, 0x24, 0x02, 0x7f, 0x3f,
  0x32, 0xde, 0x15, 0xbf, 0x07, 0x9c, 0xe0, 0xbe, 0xaa, 0x0f, 0x1c, 0x3f,
  0xfa, 0x21, 0x83, 0xbd, 0x1b, 0x1f, 0xec, 0x3e, 0xda, 0x4d, 0xeb, 0x3d,
  0x05, 0x15, 0xc4, 0x3e, 0x1c, 0x9d, 0x80, 0x3e, 0xa3, 0xf4, 0x26, 0xbe,
  0x2a, 0x20, 0x19, 0xbd, 0x80, 0x17, 0xb6, 0x3e, 0xf6, 0xa2, 0xa3, 0x3e,
  0x85, 0x2f, 0x52, 0x3e, 0xfc, 0x4e, 0xcc, 0xbe, 0xcf, 0x20, 0x6e, 0x3d,
  0x65, 0x2f, 0x46, 0x3e, 0x4d, 0x9e, 0x97, 0x3d, 0x58, 0x4c, 0xac, 0x3d,
  0x6e, 0xf2, 0x83, 0x3e, 0xe1, 0x9f, 0xa0, 0xbe, 0xf5, 0xa3, 0x1d, 0xbf,
  0x96, 0x40, 0xc6, 0x3d, 0x46, 0xa0, 0xd0, 0x3d, 0x47, 0xa0, 0x36, 0xbd,
  0x8e, 0xbc, 0xbb, 0xbe, 0xa5, 0x07, 0x82, 0xbe, 0xbf, 0x10, 0x27, 0xbe,
  0x7c, 0x4f, 0x7b, 0xbf, 0x8c, 0x52, 0xb5, 0xbe, 0x62, 0x35, 0x02, 0xbe,
  0xb9, 0x66, 0x20, 0x3f, 0x10, 0xb1, 0x7b, 0xbe, 0x2f, 0xa3, 0xa3, 0x3e,
  0x0b, 0x2c, 0x44, 0xbe, 0x4e, 0x2d, 0x5a, 0xbd, 0x15, 0x64, 0x94, 0x3e,
  0x56, 0x9f, 0x90, 0x3d, 0xc6, 0xea, 0xc9, 0xbe, 0xd2, 0x80, 0xb1, 0xbd,
  0xa4, 0xf6, 0x85, 0xbd, 0x2b, 0xa7, 0xb3, 0x3d, 0xbe, 0x36, 0x81, 0xbd,
  0x3b, 0x48, 0x19, 0x3f, 0xc6, 0x90, 0x72, 0xbb, 0x4c, 0x17, 0xef, 0xbe,
  0x10, 0xf2, 0x65, 0xbe, 0x1b, 0x75, 0x04, 0x3e, 0x58, 0x56, 0x29, 0xbf,
  0x7c, 0x1a, 0x06, 0xbf, 0x18, 0x13, 0xa4, 0xbe, 0x6e, 0x71, 0x12, 0x3f,
  0x76, 0x50, 0xab, 0x3c, 0x50, 0x09, 0xce, 0xbe, 0xbe, 0x2f, 0x7d, 0xbe,
  0x26, 0x0e, 0x52, 0x3d, 0x7b, 0xc9, 0x80, 0xbd, 0x6f, 0xd5, 0x8d, 0x3d,
  0x32, 0x12, 0x2c, 0x3e, 0xa4, 0x47, 0xd8, 0xbd, 0x97, 0x7b, 0x7b, 0xbe,
  0x05, 0x54, 0x0c, 0xbf, 0x07, 0x9d, 0x9a, 0xbd, 0x52, 0x7c, 0x22, 0x3e,
  0xe4, 0x1a, 0xb5, 0x3e, 0x56, 0x70, 0x01, 0xbe, 0xee, 0x99, 0xf0, 0x3d,
  0xb7, 0x98, 0xeb, 0x3d, 0x77, 0xa2, 0x6f, 0x3d, 0x75, 0xb0, 0x04, 0x3e,
  0x80, 0x69, 0x14, 0xbe, 0xc6, 0x01, 0xa6, 0x3e, 0xbb, 0x23, 0x48, 0xbe,
  0xa3, 0x00, 0x81, 0x3d, 0xb7, 0xf9, 0x85, 0x3f, 0xdf, 0xab, 0x96, 0xbe,
  0x35, 0x01, 0x7d, 0x3d, 0xc7, 0x5e, 0x8a, 0xbe, 0x5b, 0x3c, 0x2c, 0xbd,
  0x1d, 0x0f, 0x60, 0x3e, 0xaa, 0x77, 0x8b, 0x3e, 0x9f, 0x6c, 0x77, 0xbd,
  0xc4, 0x04, 0xcb, 0x3d, 0xcd, 0x5a, 0x59, 0x3d, 0xdb, 0x59, 0x0e, 0xbe,
  0x88, 0x27, 0xdd, 0x3e, 0x81, 0xc1, 0x6e, 0xbe, 0x2a, 0xec, 0xe7, 0x3e,
  0xe8, 0xb7, 0xca, 0x3c, 0x95, 0x7e, 0xb8, 0x3d, 0xb1, 0x56, 0x4f, 0x3e,
  0x5e, 0x92, 0x15, 0x3c, 0x69, 0x7d, 0x04, 0x3f, 0xa7, 0x11, 0x05, 0x3e,
  0x21, 0x20, 0xd1, 0xbd, 0x6f, 0x94, 0x0c, 0xbe, 0xce, 0xe2, 0x78, 0x3e,
  0xcd, 0xa0, 0x90, 0xbe, 0x1c, 0xa1, 0xcd, 0x3e, 0x99, 0xc1, 0x3e, 0x3d,
  0x49, 0xd6, 0x84, 0xbd, 0x85, 0x70, 0x51, 0x3e, 0xb3, 0xd9, 0xc7, 0xbd,
  0xc7, 0xd6, 0x12, 0x3f, 0x3a, 0xb4, 0x4e, 0xbe, 0xd0, 0x6d, 0x52, 0xbe,
  0x75, 0x55, 0x3c, 0x3f, 0xf8, 0x24, 0x34, 0xbd, 0x1a, 0x57, 0x9f, 0x3e,
  0x4c, 0x68, 0x8d, 0xbe, 0xbb, 0x4b, 0x29, 0x3c, 0x8e, 0x53, 0x80, 0xbd,
  0x10, 0x0c, 0x51, 0xbf, 0xb8, 0xb2, 0x21, 0xbe, 0x37, 0xc6, 0xde, 0xbe,
  0x12, 0xda, 0x34, 0xbc, 0x86, 0xd0, 0xd1, 0xbc, 0x94, 0xa5, 0xcc, 0xbd,
  0x65, 0x95, 0xbc, 0xbe, 0x46, 0x57, 0x36, 0xbe, 0x6d, 0xd6, 0x10, 0x3e,
  0xbb, 0x75, 0x61, 0xbe, 0xe6, 0x9e, 0xf8, 0x3d, 0x92, 0x70, 0xd7, 0x3d,
  0xf4, 0xd1, 0x1d, 0xbd, 0x8b, 0x51, 0x31, 0x3d, 0x22, 0x74, 0xf0, 0xbc,
  0x65, 0x96, 0xa2, 0xbe, 0xa5, 0xae, 0x05, 0x3f, 0xe1, 0xa8, 0xa6, 0xbe,
  0x8d, 0x58, 0xd0, 0xbe, 0x59, 0x93, 0xbd, 0xbd, 0xe6, 0x35, 0x49, 0xbe,
  0x72, 0xb8, 0x95, 0xbe, 0x56, 0xc9, 0x14, 0x3e, 0xf8, 0xc2, 0x9c, 0xbe,
  0xb5, 0xb7, 0x06, 0xbf, 0x39, 0x7a, 0x9a, 0xbd, 0x30, 0xe7, 0x98, 0xbe,
  0xcb, 0x3e, 0x7b, 0xbd, 0x1b, 0x13, 0xf9, 0xbe, 0x2d, 0x60, 0x4b, 0xbe,
  0x65, 0x20, 0xc2, 0x3e, 0x9b, 0x99, 0xcf, 0xbd, 0x7b, 0x30, 0xb7, 0x3e,
  0x73, 0x04, 0x86, 0xbf, 0xa9, 0xa7, 0xe2, 0x3e, 0xbc, 0x3d, 0x8d, 0xbd,
  0xa2, 0xbd, 0x2d, 0x3e, 0x56, 0xe5, 0xe6, 0x3e, 0xa0, 0xe5, 0x75, 0xbe,
  0x37, 0xe8, 0xb6, 0x3b, 0x0f, 0x26, 0x74, 0xbe, 0xae, 0xdb, 0xef, 0x3c,
  0x1d, 0x5c, 0x7b, 0x3e, 0xd5, 0x38, 0xfe, 0xbe, 0x87, 0xeb, 0x23, 0x3f,
  0x5c, 0x08, 0xe3, 0xbd, 0x3c, 0x13, 0x54, 0x3c, 0x49, 0xf7, 0xf8, 0xbd,
  0x56, 0x74, 0xc3, 0x3e, 0x5a, 0x0c, 0xbb, 0xbd, 0x1a, 0x68, 0x06, 0xbe,
  0xd4, 0x24, 0x50, 0xbe, 0xca, 0x70, 0x83, 0x3e, 0xb4, 0x7f, 0xf1, 0xbd,
  0x0d, 0xfb, 0xc9, 0xbe, 0x5a, 0x03, 0x12, 0x3e, 0x49, 0x19, 0x30, 0xbe,
  0x55, 0x15, 0x9d, 0xbc, 0x8a, 0xb1, 0x06, 0x3d, 0x0c, 0x69, 0xa7, 0xbe,
  0x3b, 0x9c, 0x8f, 0xbe, 0x8a, 0x78, 0x3b, 0x3d, 0x5f, 0xd2, 0xd0, 0x3d,
  0xc3, 0x66, 0x00, 0x3e, 0x33, 0x9d, 0x3f, 0x3e, 0xe4, 0x77, 0xc1, 0xbd,
  0x52, 0xf0, 0xb6, 0x3a, 0x27, 0xa5, 0x01, 0xbb, 0x50, 0x08, 0x7d, 0xbe,
  0x3d, 0x18, 0x1a, 0x3d, 0xd2, 0x60, 0xca, 0x3d, 0xd9, 0x91, 0x04, 0xbe,
  0xa9, 0x38, 0xdc, 0x3d, 0x3f, 0xa0, 0x29, 0xbd, 0x64, 0xcc, 0x01, 0x3e,
  0x00, 0x41, 0x9a, 0xbe, 0xf6, 0x02, 0xc7, 0x3d, 0x63, 0x30, 0x7d, 0xbe,
  0x98, 0xbe, 0x89, 0xbe, 0x85, 0x8d, 0x9a, 0xbe, 0x8b, 0xb3, 0x4c, 0xbe,
  0x75, 0x7f, 0xbb, 0xbc, 0x0d, 0x01, 0x26, 0x3f, 0x50, 0xee, 0x0c, 0x3e,
  0xa3, 0xc2, 0xa0, 0xbd, 0xa4, 0x8a, 0x98, 0x3c, 0xf5, 0x30, 0x2d, 0xbe,
  0xbd, 0x7e, 0x0a, 0xbd, 0xf7, 0x42, 0xc1, 0xbd, 0xe7, 0xf1, 0x5c, 0xbe,
  0x67, 0x01, 0x21, 0x3e, 0x05, 0xe9, 0x4d, 0xbe, 0x59, 0xa5, 0x83, 0x3e,
  0x71, 0xfc, 0x53, 0x3c, 0xd5, 0x18, 0xa9, 0xbd, 0x5e, 0xc6, 0x7b, 0xbe,
  0x3f, 0x2a, 0x64, 0xbe, 0x4e, 0x35, 0xa9, 0xbd, 0x57, 0xd8, 0xa6, 0xbe,
  0x9b, 0xea, 0xd8, 0x3d, 0xc2, 0x58, 0x16, 0xbd, 0x62, 0xd1, 0xf7, 0x3c,
  0x25, 0xaf, 0x52, 0x3d, 0xc2, 0x91, 0xb3, 0xbc, 0xc2, 0x8e, 0xfd, 0x3c,
  0x7c, 0x66, 0x1e, 0xbe, 0x12, 0x0c, 0xf0, 0xbd, 0x4a, 0x3c, 0xa5, 0xbd,
  0x7b, 0x4b, 0x6d, 0xbe, 0x6f, 0x66, 0xa3, 0x3e, 0x37, 0xa9, 0x7a, 0x3e,
  0xda, 0x76, 0xe9, 0xbc, 0xff, 0xd7, 0xf2, 0xbe, 0x4b, 0xda, 0xd9, 0xbe,
  0xfc, 0xdf, 0xd4, 0x3e, 0xb1, 0x0c, 0x12, 0x3e, 0x7e, 0xab, 0xe6, 0xbd,
  0x1c, 0x96, 0x00, 0xbe, 0x1f, 0x9f, 0x07, 0xbc, 0x2f, 0x21, 0x90, 0x3d,
  0xbd, 0x27, 0x89, 0xbd, 0x3a, 0x29, 0xb4, 0xbd, 0x3d, 0x50, 0x73, 0x3d,
  0xd3, 0xfb, 0xc6, 0xbd, 0xd8, 0x30, 0x03, 0x3e, 0xe8, 0xb2, 0xd2, 0xbe,
  0x52, 0x9f, 0x14, 0xbd, 0xc4, 0xfd, 0x17, 0xbe, 0xec, 0x89, 0xb6, 0xbe,
  0x35, 0x2d, 0xc1, 0xbe, 0x1b, 0x3e, 0x69, 0x3e, 0xd8, 0x98, 0x00, 0xbe,
  0x34, 0xa5, 0x3a, 0x3d, 0xee, 0x62, 0xc7, 0xbc, 0xfc, 0x37, 0x65, 0xbe,
  0xfe, 0x28, 0xcf, 0xbd, 0x1f, 0x4b, 0x1e, 0x3d, 0x9d, 0xc7, 0xaf, 0x3d,
  0xe6, 0xa4, 0x12, 0xbf, 0x45, 0x36, 0x87, 0xbc, 0x8c, 0x49, 0xbb, 0x3e,
  0xd7, 0xab, 0x3c, 0xbf, 0xd3, 0xa1, 0x63, 0x3d, 0xd0, 0x81, 0x08, 0x3f,
  0x52, 0x5c, 0x25, 0x3d, 0x5d, 0x91, 0x40, 0x3d, 0x70, 0x20, 0x8f, 0xbe,
  0xcc, 0xd6, 0x54, 0x3d, 0x09, 0x90, 0x28, 0xbe, 0xf4, 0x24, 0x03, 0x3e,
  0x93, 0x1e, 0x6d, 0xbe, 0x16, 0x04, 0xd8, 0x3d, 0xcb, 0x67, 0xdd, 0xbd,
  0x70, 0xf8, 0x3c, 0x3d, 0xb7, 0x14, 0x7e, 0x3d, 0x7c, 0x41, 0xda, 0x3e,
  0x92, 0x79, 0x7e, 0xbe, 0xca, 0x17, 0x96, 0x3d, 0xd9, 0xf6, 0xac, 0xbd,
  0x28, 0x5f, 0x32, 0x3f, 0x21, 0xe9, 0xf6, 0x3e, 0x8f, 0x7b, 0x1d, 0x3f,
  0x5a, 0x15, 0xe5, 0xbe, 0x3a, 0xd6, 0x12, 0x3e, 0xb8, 0xc0, 0xba, 0x3e,
  0xdf, 0x08, 0x22, 0xbd, 0x9b, 0xd9, 0x24, 0x3e, 0xca, 0xd4, 0x4e, 0xbe,
  0x16, 0x2c, 0xe1, 0xbe, 0x3d, 0x57, 0x27, 0x3d, 0xda, 0x76, 0x53, 0x3e,
  0xfd, 0x73, 0xc0, 0xbe, 0xa0, 0x7f, 0x24, 0xbf, 0x42, 0x35, 0xf8, 0xbd,
  0x60, 0x43, 0xa7, 0x3d, 0x5b, 0xe5, 0x16, 0x3e, 0x5d, 0x5e, 0x1f, 0xbe,
  0xfb, 0xea, 0xee, 0xbb, 0x8a, 0xb1, 0x1f, 0xbe, 0x80, 0x24, 0x10, 0xbe,
  0x09, 0xee, 0x81, 0xbe, 0x58, 0x5e, 0x90, 0x3e, 0x90, 0x3c, 0x99, 0x3e,
  0xe2, 0xf2, 0x06, 0x3f, 0xd0, 0x2f, 0x84, 0x3e, 0xd6, 0xb7, 0xc3, 0xbc,
  0x88, 0xf8, 0x21, 0x3f, 0x8a, 0x30, 0xaa, 0x3e, 0x0f, 0x4a, 0x26, 0x3b,
  0x6f, 0xc7, 0xb8, 0xbd, 0x1b, 0xcd, 0x53, 0xbe, 0x0f, 0x3d, 0xaa, 0x3e,
  0x0d, 0x74, 0x1f, 0x3f, 0x67, 0xd3, 0xb9, 0xbe, 0x24, 0xac, 0xe9, 0xbe,
  0xdf, 0xd7, 0x6d, 0xbd, 0xa9, 0xae, 0xb8, 0xbe, 0xb9, 0x36, 0xe5, 0xbd,
  0xa3, 0x18, 0x39, 0x3e, 0xb1, 0x55, 0x31, 0xbe, 0xa7, 0x6f, 0x04, 0xbe,
  0x25, 0x5e, 0x9b, 0x3d, 0x1e, 0xa9, 0x7e, 0xbe, 0x1c, 0x85, 0x16, 0x3c,
  0x0d, 0x74, 0xb2, 0xbd, 0xeb, 0x40, 0x16, 0xbe, 0xdc, 0xac, 0x92, 0x3c,
  0x13, 0x49, 0xec, 0x3c, 0xf1, 0xec, 0xda, 0x3e, 0x43, 0x34, 0x77, 0x3e,
  0xec, 0x22, 0xa8, 0xbf, 0xd8, 0x63, 0x56, 0xbe, 0x91, 0x18, 0xeb, 0x3e,
  0x57, 0x78, 0xd5, 0xbe, 0xb4, 0xa2, 0xbc, 0xbb, 0x25, 0xe8, 0x8d, 0x3d,
  0x59, 0x79, 0x95, 0xbe, 0x36, 0x68, 0x85, 0xbd, 0xac, 0x05, 0x05, 0x3e,
  0x7f, 0x02, 0xb4, 0xbe, 0xd8, 0x53, 0x47, 0xbf, 0x74, 0xa3, 0xd7, 0xbd,
  0x94, 0x4b, 0x97, 0xbe, 0xc6, 0x9f, 0x57, 0x3e, 0x29, 0xcc, 0xab, 0x3e,
  0xcb, 0x9f, 0x2e, 0x3e, 0x13, 0x65, 0xfd, 0xbe, 0xc2, 0x74, 0x41, 0x3d,
  0x93, 0x70, 0x82, 0xbe, 0xa5, 0x7a, 0x74, 0x3e, 0xdd, 0xb3, 0xcb, 0xbd,
  0x3a, 0xf0, 0xbd, 0xbc, 0xb4, 0x3f, 0xdf, 0x3e, 0x1e, 0x36, 0xa7, 0x3c,
  0x20, 0xb4, 0xa3, 0x3e, 0xe7, 0x8f, 0xa2, 0x3e, 0x8d, 0xf4, 0x1d, 0x3d,
  0x69, 0xde, 0xe6, 0xbc, 0xa2, 0x2a, 0x29, 0x3e, 0xd3, 0xd4, 0x54, 0x3e,
  0xd8, 0xe5, 0x41, 0x3f, 0xc6, 0x9b, 0x93, 0x3d, 0xb9, 0x97, 0x7d, 0xbe,
  0x63, 0x8d, 0x43, 0xbf, 0xaa, 0xae, 0x95, 0xbe, 0xab, 0x44, 0x26, 0x3e,
  0xcf, 0x63, 0x15, 0xbe, 0x44, 0xc9, 0xb3, 0xbe, 0xa2, 0x55, 0xf5, 0xbe,
  0xc0, 0x08, 0xa5, 0x3c, 0x26, 0xc9, 0x88, 0x3d, 0xbe, 0x67, 0xf3, 0xbe,
  0xe7, 0x2f, 0xc2, 0x3e, 0x88, 0x15, 0x97, 0xbe, 0x7c, 0x2a, 0xa3, 0xbe,
  0x6a, 0xe8, 0x43, 0x3e, 0x2f, 0x2f, 0x85, 0xbe, 0x7d, 0x60, 0x3f, 0x3d,
  0x67, 0x3f, 0xa9, 0x3e, 0xbe, 0x5a, 0x10, 0xbe, 0x28, 0xed, 0xb0, 0xbe,
  0xc8, 0x93, 0x06, 0xbe, 0x39, 0xbb, 0xd8, 0xbd, 0xc9, 0x3c, 0x61, 0xbe,
  0x16, 0xb5, 0x57, 0x3e, 0xdd, 0x2c, 0xd0, 0x3c, 0xec, 0x22, 0x10, 0xbd,
  0x3a, 0xfa, 0xac, 0x3e, 0x36, 0xc7, 0x00, 0xbf, 0xfe, 0x80, 0x14, 0xbf,
  0xff, 0x75, 0xb7, 0xbd, 0x09, 0xea, 0x55, 0x3e, 0x85, 0x8f, 0x28, 0xbf,
  0x94, 0xcd, 0x54, 0xbe, 0xc1, 0xe8, 0x62, 0xbe, 0xe9, 0x14, 0x17, 0x3f,
  0xd2, 0x7a, 0x02, 0xbe, 0xb1, 0x81, 0xdd, 0x3e, 0x26, 0xc6, 0xfc, 0xbb,
  0x8c, 0xce, 0xa7, 0x3b, 0x60, 0xb9, 0xff, 0x3d, 0xb2, 0xcf, 0xd4, 0xbd,
  0x39, 0x63, 0x23, 0xbf, 0xf4, 0xe4, 0x80, 0x3d, 0x47, 0xfb, 0x08, 0xbf,
  0x6e, 0xa3, 0x75, 0xbf, 0xf7, 0xa3, 0x34, 0xbe, 0x64, 0xbc, 0x76, 0xbe,
  0x7f, 0x7e, 0xdf, 0x3e, 0xb8, 0x6d, 0x80, 0x3d, 0x24, 0xce, 0xa9, 0xbe,
  0x77, 0xd2, 0x2a, 0xbf, 0xe4, 0x33, 0x47, 0xbe, 0x10, 0x23, 0xd1, 0xbe,
  0x93, 0xae, 0x37, 0x3e, 0xa2, 0x88, 0xa9, 0xbe, 0x0c, 0x0b, 0x39, 0xbf,
  0x9a, 0x43, 0x3e, 0x3e, 0xa4, 0x52, 0xac, 0x3e, 0xe0, 0x63, 0xad, 0xbe,
  0x1f, 0x5d, 0x88, 0xbe, 0x66, 0xfc, 0x53, 0x3e, 0x4b, 0x10, 0x1a, 0x3f,
  0x52, 0xed, 0x8f, 0xbe, 0xcc, 0xd0, 0xc9, 0x3e, 0x59, 0x16, 0xc9, 0xbe,
  0x16, 0xec, 0xc0, 0xbe, 0x99, 0x78, 0xfe, 0x3e, 0xd7, 0x8b, 0x6d, 0x3e,
  0xcf, 0x7d, 0xca, 0xbe, 0x5a, 0x2c, 0xc4, 0xbf, 0x07, 0x9e, 0x9b, 0x3d,
  0x79, 0xb6, 0x83, 0xbe, 0x49, 0x2d, 0xe3, 0x3d, 0x11, 0xa6, 0x8a, 0x3e,
  0x06, 0x71, 0x1c, 0xbf, 0x78, 0xdd, 0xad, 0xbe, 0xd6, 0x07, 0x68, 0xbe,
  0x5e, 0xe8, 0x5b, 0x3e, 0xe0, 0x1d, 0x01, 0xbf, 0x0b, 0x2f, 0x39, 0xbf,
  0x9d, 0x8b, 0x29, 0xbd, 0x99, 0xf4, 0xa8, 0x3d, 0x09, 0xbc, 0x64, 0xbe,
  0xc9, 0x05, 0xf3, 0xbc, 0x52, 0x8a, 0xf2, 0xbc, 0x0b, 0xd3, 0xaa, 0x3e,
  0xa2, 0xd4, 0xf4, 0x3d, 0xda, 0xa6, 0x3d, 0xbc, 0xde, 0x7e, 0x16, 0x3f,
  0x11, 0x14, 0xa9, 0xbd, 0x74, 0xeb, 0xb6, 0xbe, 0xfd, 0x15, 0xcb, 0xbe,
  0xcb, 0x97, 0xf6, 0x3c, 0xf9, 0xec, 0x8f, 0xbe, 0x5f, 0x4d, 0x66, 0x3d,
  0x56, 0xb2, 0xac, 0x3e, 0xe3, 0x59, 0xf2, 0xbe, 0xea, 0x05, 0xcb, 0xbe,
  0x16, 0xa1, 0x93, 0x3e, 0x3f, 0x6f, 0x1f, 0xbf, 0x10, 0xfc, 0x69, 0xbe,
  0x78, 0x65, 0x24, 0xbf, 0x70, 0x41, 0xec, 0x3d, 0xe4, 0xb1, 0xbb, 0x3d,
  0x73, 0xdc, 0x24, 0x3d, 0x9e, 0x92, 0x06, 0xbf, 0x89, 0x70, 0x3d, 0xbe,
  0xe7, 0x5e, 0xfd, 0xbe, 0xdf, 0x3d, 0x10, 0xbe, 0x2c, 0x00, 0x84, 0xbc,
  0x8f, 0x60, 0x79, 0xbe, 0x95, 0x4f, 0x00, 0x3f, 0x04, 0x90, 0x9e, 0xbe,
  0x51, 0xc4, 0xc1, 0x3d, 0xee, 0x5a, 0x3c, 0xbd, 0x0a, 0xd4, 0x8f, 0x3e,
  0x85, 0x86, 0xeb, 0x3d, 0x71, 0xba, 0x66, 0xbe, 0x4a, 0x3b, 0xd5, 0x3d,
  0x01, 0x95, 0xab, 0xbd, 0x71, 0xaa, 0x49, 0x3e, 0xce, 0x69, 0x52, 0xbf,
  0x7f, 0x5c, 0x0b, 0xbe, 0x02, 0x02, 0xed, 0x3d, 0xf1, 0xe7, 0xad, 0x3e,
  0x21, 0xed, 0x20, 0xbe, 0xd0, 0x0c, 0x24, 0xbd, 0x53, 0xb6, 0x8f, 0x3f,
  0xd2, 0x4a, 0x15, 0x3e, 0xa5, 0xc8, 0xcc, 0xbe, 0xe1, 0x15, 0x9b, 0xbe,
  0xe4, 0xde, 0x25, 0xbe, 0x73, 0xcd, 0x01, 0xbe, 0x16, 0x63, 0x16, 0x3e,
  0x1d, 0x8c, 0xba, 0xbe, 0x61, 0x0e, 0xd4, 0xbe, 0xe7, 0xae, 0x86, 0xbf,
  0x27, 0x98, 0x25, 0x3e, 0x0c, 0x99, 0xaa, 0xbd, 0xdf, 0xf4, 0x1f, 0x3e,
  0x07, 0xcf, 0xe5, 0x3d, 0x70, 0xc3, 0x84, 0x3e, 0xc3, 0xdd, 0xba, 0xbd,
  0x16, 0xd5, 0xa7, 0x3d, 0x06, 0x84, 0x85, 0x3d, 0x2a, 0x39, 0x26, 0x3e,
  0xd5, 0x6d, 0x7d, 0xbd, 0x1d, 0x2f, 0xe3, 0xbb, 0xb3, 0x83, 0xc1, 0x3e,
  0x75, 0xeb, 0x22, 0xbf, 0xe8, 0xfd, 0xeb, 0xbe, 0x72, 0xea, 0x90, 0x3e,
  0x9c, 0xeb, 0x3d, 0x3e, 0x30, 0x5b, 0x09, 0x3f, 0x35, 0x66, 0x07, 0xbf,
  0xa9, 0x66, 0x0a, 0x3e, 0xfe, 0x31, 0x57, 0x3e, 0x32, 0xfa, 0x30, 0xbf,
  0xfb, 0x41, 0xff, 0xbe, 0x01, 0x8c, 0xcf, 0x3e, 0x74, 0x08, 0x67, 0x3e,
  0xb8, 0x26, 0xf2, 0xbd, 0xa3, 0x13, 0xa7, 0xbd, 0x44, 0x4b, 0x0e, 0xbf,
  0xfa, 0xa3, 0xef, 0x3e, 0xfd, 0x2a, 0xda, 0x3c, 0x11, 0xcf, 0xe0, 0x3d,
  0x35, 0x12, 0xb1, 0x3e, 0x1c, 0xc0, 0xec, 0xbd, 0x98, 0x7a, 0x57, 0xbf,
  0x94, 0x95, 0x3a, 0xbf, 0xd5, 0xd8, 0xd5, 0x3e, 0x04, 0x55, 0x26, 0xbf,
  0x78, 0x71, 0x9f, 0xbe, 0x66, 0x58, 0x00, 0x3e, 0x25, 0x8a, 0xdf, 0x3e,
  0xd6, 0xe9, 0x4f, 0x3a, 0x2f, 0xc5, 0xe6, 0x3e, 0xa6, 0x3a, 0x89, 0xbd,
  0xd5, 0xf1, 0xdd, 0xbe, 0x93, 0x05, 0xdc, 0x3d, 0x60, 0x07, 0x66, 0x3e,
  0xe7, 0x84, 0x7f, 0xbe, 0xde, 0x0f, 0xf3, 0x3d, 0x24, 0x3e, 0x9e, 0xbe,
  0xac, 0x77, 0x58, 0x3e, 0x76, 0x9f, 0x13, 0xbf, 0x3d, 0x36, 0xa3, 0xbd,
  0x9d, 0x90, 0x30, 0xbe, 0x7a, 0xad, 0xb3, 0xbe, 0xee, 0xd8, 0x24, 0xbf,
  0x57, 0x01, 0xa7, 0x3e, 0x41, 0xb8, 0x6c, 0x3d, 0x0d, 0x83, 0xb3, 0xbb,
  0x71, 0x26, 0xea, 0xbd, 0xd8, 0x04, 0x47, 0x3e, 0x38, 0x72, 0x3b, 0xbe,
  0x5c, 0x52, 0x45, 0x3d, 0x40, 0x04, 0xa2, 0xbe, 0xfe, 0x01, 0xcc, 0x3b,
  0xaa, 0xc2, 0x59, 0x3e, 0x7f, 0xbf, 0x28, 0xbd, 0x28, 0xd1, 0xc4, 0xbc,
  0x00, 0x7b, 0x75, 0xbe, 0x2a, 0x94, 0x15, 0xbd, 0x4f, 0x7e, 0x49, 0xbe,
  0x68, 0x61, 0xe5, 0x3e, 0xd5, 0xd5, 0x2e, 0xbe, 0xfc, 0x59, 0xda, 0x3e,
  0xd7, 0xc2, 0x73, 0x3e, 0xab, 0x5d, 0x9c, 0xbe, 0x14, 0xc8, 0xce, 0x3d,
  0x16, 0xc6, 0x9f, 0xbc, 0x68, 0x22, 0x3e, 0x3e, 0xa8, 0x68, 0x18, 0x3d,
  0x62, 0x89, 0x97, 0xbe, 0x48, 0x25, 0xc5, 0x3e, 0x5c, 0x7f, 0x9d, 0x3b,
  0x0d, 0x04, 0xac, 0xbe, 0x2b, 0xa2, 0x27, 0xbe, 0xc4, 0x6b, 0x11, 0xbe,
  0x3e, 0x7b, 0x9b, 0xbd, 0x65, 0xb0, 0xb3, 0xbd, 0x23, 0xf4, 0x84, 0x3e,
  0xc0, 0x8f, 0x55, 0x3d, 0xfc, 0x75, 0x03, 0xbe, 0x9d, 0xc5, 0xab, 0xbe,
  0xba, 0xc4, 0x66, 0xbe, 0x96, 0x8c, 0xce, 0x3d, 0x47, 0x3b, 0xf0, 0x3e,
  0xa4, 0xfa, 0x8f, 0x3b, 0xf2, 0xcf, 0x7d, 0xbe, 0x63, 0x9b, 0xc6, 0xbe,
  0x17, 0xbe, 0xdd, 0x3e, 0xbf, 0x57, 0x9e, 0xbd, 0x56, 0xd4, 0x0b, 0xbf,
  0x47, 0x57, 0x9a, 0x38, 0xa8, 0x88, 0xac, 0x38, 0x35, 0x03, 0x73, 0xba,
  0x77, 0x9a, 0x52, 0x3a, 0x41, 0xdb, 0x26, 0x3a, 0xc9, 0x5c, 0x25, 0x3a,
  0x89, 0xa3, 0xd0, 0xb9, 0x83, 0x23, 0x97, 0xba, 0x8a, 0x52, 0x34, 0xba,
  0xaf, 0x4e, 0x10, 0xba, 0xc5, 0x6e, 0x7f, 0x3a, 0x42, 0xa5, 0x71, 0xba,
  0x08, 0xb0, 0x71, 0xba, 0xfa, 0xba, 0xa7, 0x39, 0x17, 0x28, 0xb2, 0x39,
  0xef, 0xea, 0xbe, 0x38, 0x9d, 0x27, 0x06, 0x37, 0x9d, 0x6f, 0xb2, 0x39,
  0xf1, 0xbf, 0x15, 0xba, 0x25, 0x23, 0x5e, 0x3a, 0xcd, 0x0f, 0x10, 0x3a,
  0xca, 0xa5, 0xdb, 0x39, 0x8d, 0x47, 0x0f, 0xba, 0x51, 0x03, 0x61, 0xba,
  0x17, 0x7c, 0x65, 0xba, 0xa9, 0x6d, 0x84, 0xba, 0x0d, 0xc7, 0x5b, 0x3a,
  0xde, 0x42, 0x30, 0xba, 0xf3, 0x83, 0x31, 0xba, 0x04, 0x00, 0x31, 0x3a,
  0x4e, 0x2d, 0x99, 0x39, 0x9e, 0x2a, 0xc2, 0x39, 0x30, 0x78, 0xc0, 0xb8,
  0xe6, 0x29, 0x12, 0x3a, 0x20, 0x20, 0xfc, 0xb9, 0xab, 0x03, 0x07, 0x3a,
  0x8d, 0xdf, 0x22, 0x3a, 0x51, 0xbe, 0x23, 0x3a, 0x3c, 0x0e, 0x41, 0xba,
  0x64, 0x56, 0x6e, 0xba, 0x80, 0x8a, 0x16, 0xba, 0x08, 0x94, 0x42, 0xba,
  0x7b, 0x31, 0x28, 0x3a, 0xdc, 0xc8, 0xf9, 0xb9, 0x13, 0xa0, 0x3b, 0xba,
  0x53, 0x91, 0xf9, 0x39, 0x91, 0x01, 0x2c, 0x3a, 0xae, 0x2c, 0x0b, 0x39,
  0xe5, 0xe0, 0x73, 0x3e, 0xcf, 0xf8, 0x05, 0x3d, 0xe2, 0x28, 0xc4, 0x3d,
  0xd2, 0xec, 0xb7, 0xbc, 0xc2, 0xd7, 0xee, 0xbd, 0x8c, 0x92, 0x95, 0x3d,
  0x0a, 0x2b, 0x0e, 0xbd, 0x00, 0x13, 0x19, 0xbe, 0xe4, 0x0e, 0x17, 0xbe,
  0xce, 0x0d, 0xfb, 0xbc, 0xcf, 0x1c, 0xcb, 0x3c, 0x01, 0xda, 0x1c, 0xbe,
  0xfd, 0x03, 0xe8, 0xbd, 0x3b, 0xf4, 0xd0, 0x3c, 0x36, 0x07, 0x6b, 0xbe,
  0xae, 0xf2, 0x12, 0x3e, 0x07, 0x27, 0x66, 0x3e, 0x6a, 0x55, 0xbd, 0x3c,
  0x8f, 0xe9, 0xaf, 0x3d, 0x29, 0x50, 0x96, 0xbe, 0x77, 0x12, 0x11, 0xbe,
  0xb0, 0x97, 0x87, 0x3e, 0xa7, 0xc4, 0x20, 0x3c, 0x75, 0xb2, 0x41, 0xbe,
  0x6f, 0x34, 0x66, 0xbe, 0xa2, 0xa4, 0x5f, 0xbc, 0x48, 0x33, 0x83, 0x3d,
  0xa3, 0xd2, 0x8c, 0xbe, 0xe3, 0x08, 0xf5, 0xbd, 0x49, 0x88, 0x10, 0x3e,
  0xdd, 0x2b, 0xee, 0xbd, 0xc8, 0xbe, 0xf1, 0x3d, 0xd9, 0x39, 0x03, 0x3e,
  0xb8, 0x09, 0x83, 0x3d, 0x01, 0x0c, 0xb7, 0x3d, 0xae, 0x0e, 0x03, 0xbe,
  0x1b, 0x82, 0x8b, 0x3a, 0x88, 0x85, 0x5a, 0x3e, 0x60, 0x66, 0xed, 0x3d,
  0x58, 0x1c, 0x5b, 0xbe, 0x3f, 0x54, 0x02, 0xbe, 0x39, 0xf9, 0x14, 0xbe,
  0x4a, 0xb9, 0x15, 0x3e, 0x4d, 0x5d, 0xb7, 0xbe, 0xfa, 0xc3, 0x4f, 0xbe,
  0xd7, 0x75, 0x60, 0xbe, 0xe0, 0x15, 0x1e, 0xbe, 0x2c, 0x45, 0x0a, 0x3e,
  0xff, 0x2d, 0x4b, 0xbe, 0x14, 0x56, 0x81, 0xbe, 0x68, 0xa9, 0xa0, 0xbd,
  0x91, 0xca, 0xb5, 0x3e, 0xe6, 0xbe, 0xd8, 0xbe, 0x92, 0x74, 0x1d, 0x3e,
  0x1f, 0xd0, 0x77, 0xbf, 0x13, 0x3a, 0x6d, 0xbe, 0x4d, 0x82, 0xb0, 0x3c,
  0x60, 0x64, 0x17, 0xbe, 0x1c, 0x35, 0xec, 0x3e, 0x3e, 0x65, 0xdc, 0x3d,
  0xe1, 0x0f, 0x2a, 0x3b, 0x17, 0x32, 0xf2, 0x3e, 0x14, 0x4e, 0x0c, 0xbf,
  0xc9, 0xc5, 0x0f, 0x3e, 0xe4, 0xf8, 0x70, 0x3e, 0xa0, 0x53, 0x8e, 0x3d,
  0x21, 0x58, 0xad, 0x3e, 0x85, 0xc3, 0x11, 0xbf, 0x45, 0x7c, 0xc5, 0xbd,
  0x82, 0xa4, 0x6b, 0x3f, 0x40, 0x99, 0xbb, 0x3a, 0x96, 0x6d, 0x53, 0xbf,
  0x4f, 0x4c, 0x93, 0xbe, 0xda, 0xf6, 0x09, 0xbf, 0x5d, 0xa5, 0x71, 0x3e,
  0x78, 0xd1, 0x41, 0xbe, 0x01, 0x74, 0x0c, 0xbe, 0x18, 0x6b, 0xe4, 0x3e,
  0x0a, 0xb8, 0x7f, 0xbe, 0x1e, 0x90, 0x03, 0x3f, 0xd3, 0x91, 0x03, 0x3e,
  0x7c, 0x22, 0x47, 0x3d, 0x35, 0xca, 0x7a, 0xbe, 0xc4, 0x1e, 0x55, 0x3e,
  0xc4, 0xff, 0x37, 0xbe, 0x06, 0xfa, 0xc6, 0x3d, 0xd9, 0x06, 0xd3, 0xbd,
  0x45, 0xe6, 0x79, 0x3e, 0x45, 0xc4, 0xb1, 0xbc, 0x80, 0x8e, 0x60, 0xbe,
  0x23, 0x13, 0xfb, 0x3e, 0xc3, 0xda, 0xd5, 0x3e, 0x5f, 0x21, 0xa4, 0xbc,
  0xda, 0xfd, 0x86, 0x3e, 0xd3, 0xb0, 0x95, 0xbe, 0xfd, 0x76, 0xfb, 0x3e,
  0x65, 0x4a, 0x33, 0xbf, 0xeb, 0x88, 0x1b, 0xbe, 0x79, 0xf6, 0xa8, 0x3e,
  0x61, 0x18, 0xd2, 0xbd, 0x57, 0xba, 0xb9, 0xbe, 0xa4, 0x6a, 0x86, 0xbe,
  0x4f, 0xa4, 0x0b, 0xbe, 0x37, 0xad, 0xd9, 0x3d, 0x65, 0xe8, 0xb5, 0xbc,
  0x40, 0xce, 0xb7, 0xbe, 0x60, 0xa0, 0x00, 0xbf, 0x80, 0xbd, 0xa3, 0x3e,
  0xce, 0xd5, 0xc8, 0x3e, 0x1c, 0xfd, 0x21, 0xbf, 0xee, 0x0a, 0x47, 0xbe,
  0x76, 0xb7, 0x80, 0xbe, 0xae, 0xd6, 0xed, 0xbe, 0x92, 0xd5, 0x88, 0xbe,
  0x62, 0x32, 0xc3, 0x3e, 0xc8, 0x9c, 0xa7, 0x3e, 0xda, 0xf8, 0x5f, 0x3d,
  0x0d, 0x1c, 0x2e, 0x3e, 0x83, 0xb7, 0xd0, 0xbe, 0x03, 0x9c, 0x08, 0xbe,
  0x3f, 0xc9, 0x06, 0x3e, 0x2b, 0x2b, 0x35, 0xbf, 0x4b, 0xdf, 0x8e, 0x3d,
  0x59, 0x46, 0x2a, 0xbf, 0xbe, 0x2f, 0x62, 0x3e, 0xad, 0x49, 0x65, 0x3e,
  0x17, 0x2e, 0x2e, 0xbf, 0x47, 0x5e, 0x8e, 0x3c, 0xdc, 0x93, 0xd5, 0xbe,
  0x1b, 0x45, 0x06, 0xbf, 0xf6, 0x30, 0x00, 0x3d, 0xf8, 0x97, 0x89, 0xbe,
  0xf8, 0x0f, 0x04, 0x3f, 0x49, 0xda, 0x2c, 0xbe, 0x71, 0x94, 0xfe, 0xbe,
  0xcb, 0x53, 0x2d, 0xbf, 0x80, 0x7a, 0x51, 0x3e, 0x8c, 0x53, 0x79, 0x3e,
  0xce, 0x7a, 0xce, 0x3c, 0x3a, 0xb5, 0xdd, 0x3e, 0xb2, 0x0e, 0x01, 0x3e,
  0x32, 0x28, 0x27, 0x3f, 0x21, 0xbc, 0x2d, 0xbf, 0xe0, 0xaf, 0x4d, 0xbd,
  0x6a, 0xe1, 0x54, 0xb9, 0x09, 0xc9, 0x46, 0xb9, 0x7a, 0x77, 0x9f, 0x39,
  0xf2, 0x76, 0xbc, 0xb9, 0x5a, 0xa9, 0xcb, 0xb9, 0xd7, 0x0e, 0x9d, 0xb9,
  0x29, 0x36, 0x29, 0x3a, 0x4c, 0x2e, 0x68, 0x3a, 0xca, 0xa7, 0x22, 0xb9,
  0xf7, 0xbe, 0xba, 0x39, 0x33, 0xc5, 0x21, 0xba, 0x27, 0x04, 0x4d, 0x38,
  0xf0, 0x20, 0x6c, 0x39, 0x18, 0x40, 0xc4, 0xb9, 0xbb, 0x4e, 0x9e, 0xb9,
  0x50, 0x47, 0xd3, 0xb8, 0x4c, 0x63, 0xaa, 0xb9, 0xf0, 0x96, 0xb7, 0xb9,
  0x3b, 0x37, 0x79, 0x39, 0x42, 0x45, 0xda, 0xb9, 0x00, 0xbe, 0xb0, 0xb9,
  0x5f, 0x4f, 0x37, 0xb9, 0xca, 0x35, 0x17, 0x3a, 0x7c, 0x16, 0x43, 0x3a,
  0x2c, 0x0f, 0xab, 0x38, 0xaa, 0xdb, 0x44, 0x39, 0xb0, 0x58, 0x19, 0xba,
  0xd3, 0xe3, 0xd2, 0x39, 0x3f, 0xb7, 0xf0, 0x39, 0xf6, 0x10, 0xcb, 0xb9,
  0x46, 0x4c, 0xeb, 0xb9, 0x7c, 0x55, 0xab, 0xb9, 0x78, 0x93, 0x15, 0xb9,
  0x4a, 0xf1, 0x98, 0xb8, 0x07, 0x0f, 0xeb, 0x39, 0xfb, 0x53, 0xe4, 0xb9,
  0x54, 0x09, 0x72, 0xb9, 0x67, 0xba, 0x42, 0xb9, 0x9a, 0x10, 0x1a, 0x3a,
  0x67, 0xe8, 0x66, 0x3a, 0x02, 0x50, 0xbe, 0x38, 0xcd, 0x52, 0x91, 0x39,
  0x84, 0x4d, 0x0c, 0xba, 0x8a, 0x87, 0x82, 0x39, 0x40, 0x8a, 0xb1, 0x39,
  0x43, 0x06, 0x06, 0xba, 0xe0, 0x80, 0x47, 0xb9, 0x78, 0xcb, 0x81, 0xb9,
  0x88, 0x86, 0x9a, 0x3e, 0x80, 0x6c, 0x1d, 0xbe, 0x6e, 0x87, 0x0e, 0xbf,
  0x2f, 0x30, 0x01, 0x3f, 0x62, 0xe6, 0xbb, 0xbe, 0x55, 0x97, 0x75, 0xbe,
  0xe0, 0xf6, 0x01, 0xbd, 0x1a, 0x1c, 0x65, 0xbe, 0xa9, 0xcf, 0x0c, 0xbf,
  0x6c, 0x4e, 0x74, 0xbf, 0xae, 0x74, 0xfe, 0xbd, 0x1b, 0xd1, 0x8c, 0xbe,
  0x8a, 0xc8, 0x5d, 0xbd, 0x0f, 0x88, 0xa0, 0xbf, 0x20, 0x19, 0x4f, 0x3b,
  0x76, 0x5a, 0x8c, 0xbe, 0x55, 0x8e, 0xea, 0xbd, 0x4f, 0x61, 0xae, 0x3c,
  0x08, 0x5c, 0x4e, 0xbf, 0xa9, 0xa9, 0xe3, 0x3e, 0xfc, 0x85, 0x17, 0x3f,
  0xd0, 0x07, 0x77, 0x3d, 0xd6, 0xa9, 0xfe, 0xbe, 0xf3, 0x0e, 0x5a, 0x3e,
  0x40, 0xa8, 0xe2, 0xbc, 0xaa, 0x18, 0xd3, 0xbe, 0x31, 0x93, 0x88, 0xbd,
  0x43, 0x58, 0xfc, 0xbe, 0x0b, 0x8b, 0xa1, 0x3e, 0xaf, 0x62, 0xa9, 0xbe,
  0x7f, 0x89, 0x83, 0xbf, 0x3f, 0xd6, 0x84, 0x3e, 0xbb, 0x07, 0x2c, 0xbd,
  0x6b, 0xee, 0x2b, 0xbf, 0x8c, 0x77, 0xf8, 0x3d, 0x61, 0x73, 0x15, 0x3e,
  0x16, 0x72, 0xd4, 0xbe, 0xdf, 0xee, 0x0c, 0xbf, 0x1f, 0x97, 0x47, 0xbe,
  0xe3, 0x7c, 0x01, 0xbe, 0xa1, 0x8b, 0xb7, 0xbd, 0x52, 0xac, 0x35, 0xbe,
  0xdb, 0xfd, 0x09, 0x3c, 0x4c, 0xf1, 0x90, 0x3e, 0x7d, 0x19, 0x1c, 0xbf,
  0x58, 0x17, 0x1c, 0x3e, 0xf7, 0xd2, 0x64, 0xbe, 0xa7, 0x1b, 0xe0, 0x3c,
  0x96, 0xfb, 0xff, 0xff, 0x04, 0x00, 0x00, 0x00, 0x80, 0x03, 0x00, 0x00,
  0x0f, 0x8d, 0xc5, 0x3f, 0x0a, 0xab, 0x3c, 0x40, 0x68, 0x25, 0xbb, 0x3d,
  0xde, 0xb7, 0x9a, 0xbd, 0x07, 0xcc, 0xe2, 0xbe, 0xfc, 0x91, 0x8f, 0xbf,
  0x57, 0xf7, 0xe3, 0x3d, 0x5c, 0x99, 0x14, 0x40, 0x5f, 0x57, 0xdb, 0xba,
  0xd0, 0x15, 0x0f, 0xc0, 0x76, 0xff, 0x20, 0x3f, 0x1b, 0x42, 0x19, 0xbf,
  0xc4, 0x67, 0x94, 0xc0, 0xb9, 0xdc, 0xe9, 0xbf, 0xd9, 0x8a, 0xc4, 0xbe,
  0x38, 0x13, 0xb7, 0x3f, 0x94, 0xd6, 0x81, 0x3f, 0x98, 0x54, 0x38, 0x3f,
  0x8c, 0x06, 0xd2, 0xbf, 0xd7, 0xcf, 0x74, 0x3e, 0xde, 0x53, 0xff, 0xbe,
  0x58, 0xd8, 0xa1, 0xbf, 0x6a, 0x29, 0x82, 0x40, 0x12, 0x42, 0x2b, 0xc0,
  0xfe, 0x28, 0xc8, 0x3f, 0x27, 0x03, 0x75, 0xbf, 0x00, 0xba, 0x69, 0xbd,
  0xab, 0x17, 0x1d, 0x3f, 0x4f, 0x8f, 0xca, 0xbf, 0x95, 0x9b, 0xbe, 0xbd,
  0xfd, 0xa2, 0x92, 0x3c, 0x7d, 0x5b, 0x42, 0x3f, 0xa2, 0xbc, 0x30, 0x3f,
  0x64, 0x86, 0x29, 0x3e, 0x27, 0x33, 0x10, 0xbf, 0x0f, 0xec, 0x11, 0x3f,
  0xd2, 0x0e, 0x67, 0x3f, 0x71, 0xd4, 0xd7, 0xbf, 0x96, 0x0e, 0xee, 0x3f,
  0x7a, 0xdc, 0x0c, 0x40, 0x4f, 0x1a, 0x94, 0xbe, 0x35, 0x9f, 0xf8, 0xbd,
  0xb8, 0x13, 0x3e, 0x3f, 0x0b, 0x28, 0x63, 0x3f, 0x22, 0x90, 0xac, 0x3f,
  0x98, 0xb4, 0xbf, 0x3f, 0x27, 0x3b, 0x22, 0x3f, 0x13, 0xc4, 0x0a, 0xc0,
  0x16, 0x92, 0x14, 0xbe, 0x0a, 0xc9, 0xd2, 0x3d, 0x95, 0xfb, 0xda, 0xbf,
  0x9c, 0x10, 0x0d, 0x3f, 0x8a, 0x13, 0xed, 0xbf, 0x59, 0xa5, 0x42, 0xbf,
  0x07, 0x2f, 0xdc, 0xbf, 0xc5, 0xa1, 0x51, 0xbf, 0x0c, 0xfd, 0x99, 0xbd,
  0x75, 0x21, 0xc0, 0xbe, 0xdb, 0x08, 0x92, 0x3e, 0x9c, 0xff, 0x92, 0x3f,
  0x1d, 0xbf, 0x1a, 0xc0, 0x83, 0x32, 0xf0, 0xbc, 0x05, 0xef, 0xac, 0x3d,
  0xe6, 0x06, 0xe0, 0x40, 0x4e, 0x94, 0x8e, 0x40, 0x88, 0x0d, 0x0b, 0xc0,
  0x38, 0x2b, 0x21, 0x40, 0xe1, 0x2a, 0x22, 0x3f, 0x2e, 0x1c, 0x92, 0x3f,
  0xe2, 0x9e, 0x2e, 0x40, 0xc9, 0x82, 0x49, 0xc0, 0x44, 0xe5, 0x2f, 0xc0,
  0xa7, 0x4c, 0x56, 0xbf, 0x96, 0x80, 0x92, 0x3f, 0xef, 0xb6, 0xb5, 0xbf,
  0x74, 0xbc, 0x2c, 0xbf, 0x29, 0x1e, 0xbe, 0xbe, 0x67, 0xb7, 0x19, 0x40,
  0x5a, 0xcf, 0xce, 0x3e, 0xc9, 0x6e, 0x91, 0xbf, 0xa8, 0xc8, 0xec, 0xbf,
  0x75, 0x9b, 0xb0, 0xbf, 0x91, 0x79, 0x33, 0xbe, 0xac, 0x84, 0x68, 0x40,
  0x58, 0x10, 0xf0, 0xbd, 0x7b, 0x14, 0xaa, 0xbf, 0x55, 0x83, 0x12, 0x3e,
  0xad, 0x23, 0x2a, 0xc0, 0x4a, 0x8e, 0xfc, 0x3f, 0xd0, 0x43, 0x4c, 0x3f,
  0x28, 0xec, 0x11, 0xbd, 0x53, 0x77, 0x85, 0x3f, 0xd8, 0xc3, 0x40, 0x40,
  0x1c, 0x0e, 0xde, 0xbf, 0x89, 0xb5, 0xda, 0x3c, 0xae, 0x28, 0xcf, 0xbf,
  0x2a, 0x4b, 0xff, 0xbf, 0x29, 0xd9, 0x80, 0xbf, 0xc7, 0x27, 0x33, 0xc0,
  0xee, 0xb0, 0x31, 0x3f, 0x7f, 0xe2, 0x3d, 0x3f, 0x98, 0x22, 0xe7, 0xbe,
  0x06, 0x57, 0x6b, 0xbf, 0xf6, 0xbb, 0x64, 0xbe, 0x4b, 0xe7, 0x09, 0xc0,
  0x05, 0xd4, 0x90, 0x40, 0x37, 0x4b, 0x82, 0xc0, 0x1f, 0xbe, 0x21, 0xbd,
  0x0a, 0x3b, 0xee, 0x3e, 0xe4, 0x85, 0xa6, 0x40, 0xc1, 0x9f, 0x58, 0xbf,
  0x1b, 0x33, 0x8e, 0x3e, 0x4b, 0xcc, 0x2a, 0xbf, 0x07, 0xba, 0x55, 0xbf,
  0x9b, 0xec, 0x3e, 0xbf, 0xd4, 0xd3, 0x82, 0xc0, 0xa5, 0xb6, 0xea, 0x3f,
  0x82, 0x4b, 0x10, 0x40, 0x2b, 0x4c, 0x35, 0x3e, 0xb4, 0x23, 0x4e, 0xbf,
  0x03, 0x7a, 0x0f, 0xc0, 0x65, 0x1c, 0x15, 0x40, 0xa3, 0x1a, 0x8d, 0xbd,
  0x9d, 0x56, 0xa1, 0xbf, 0x7c, 0x23, 0x75, 0x3f, 0x3a, 0xcf, 0x30, 0x40,
  0x88, 0xb1, 0x3f, 0x3d, 0x27, 0x61, 0xa0, 0x3d, 0x4e, 0xb6, 0x64, 0x3f,
  0xe7, 0xa8, 0x8c, 0xbd, 0xd5, 0x4b, 0xe8, 0x3f, 0xab, 0xf2, 0x33, 0x3f,
  0xc2, 0x95, 0xd4, 0xbf, 0xd9, 0x35, 0xbf, 0xbf, 0x07, 0x67, 0x07, 0xbf,
  0xbb, 0x6e, 0x22, 0x40, 0xe7, 0x5b, 0x50, 0x40, 0xe2, 0xa6, 0xf5, 0x3f,
  0x82, 0xed, 0x2e, 0xbf, 0xd1, 0x43, 0xf8, 0xbf, 0x59, 0x7b, 0x9c, 0x3f,
  0xb1, 0x5f, 0x22, 0xc0, 0xc2, 0x55, 0x38, 0xc0, 0x33, 0x10, 0x14, 0x3e,
  0xed, 0xb0, 0x1a, 0xc0, 0x54, 0x25, 0x96, 0x3f, 0x6f, 0xcd, 0x81, 0x3e,
  0x01, 0x32, 0x95, 0xbe, 0x55, 0x9a, 0x3e, 0xbe, 0xc9, 0x2f, 0xc2, 0x3e,
  0x2f, 0x82, 0x9e, 0x3e, 0x0e, 0x81, 0x5f, 0x40, 0x7a, 0xcb, 0xdb, 0xbe,
  0x13, 0x47, 0xea, 0xbe, 0xb9, 0xe9, 0xae, 0x3c, 0xf4, 0x21, 0xdc, 0xbf,
  0x56, 0x5d, 0x32, 0x40, 0xd0, 0x08, 0x8e, 0xbf, 0xac, 0xac, 0x9b, 0x3d,
  0xaf, 0xbd, 0x43, 0xc0, 0x5e, 0xfa, 0xc8, 0x3f, 0xe0, 0x7f, 0xa0, 0x3f,
  0x5e, 0x5a, 0xe3, 0xbf, 0x94, 0x6a, 0x1a, 0xc0, 0x32, 0x5c, 0xc4, 0xbf,
  0xe2, 0x4b, 0x6c, 0x3f, 0x0b, 0x96, 0xd7, 0x3f, 0x83, 0x85, 0xdc, 0xbf,
  0xaf, 0x07, 0x8b, 0xbf, 0x4a, 0x26, 0x6c, 0xc0, 0x9f, 0x23, 0x44, 0x40,
  0xf6, 0x84, 0x0b, 0x40, 0x9c, 0xe0, 0x0e, 0x40, 0xf0, 0x08, 0x7a, 0xbf,
  0x4f, 0xde, 0x34, 0x40, 0x92, 0x6a, 0x8b, 0x3f, 0x19, 0x87, 0x28, 0xbf,
  0x60, 0x48, 0x00, 0x40, 0x01, 0x2c, 0x4d, 0x3e, 0xf9, 0x86, 0x82, 0xbf,
  0xbb, 0x96, 0x8b, 0x3f, 0xfe, 0xcc, 0x4b, 0xbf, 0x8b, 0xbe, 0xe5, 0xbf,
  0x87, 0xbd, 0x2f, 0xbe, 0xc5, 0xb4, 0x2b, 0xbf, 0x82, 0x2c, 0xa6, 0xbf,
  0x55, 0x80, 0x67, 0x39, 0xd2, 0xf7, 0x21, 0xc0, 0xbe, 0x6b, 0x21, 0x3e,
  0x48, 0xb7, 0x3e, 0xbf, 0xdd, 0xa5, 0xbb, 0x3d, 0x69, 0xc6, 0x22, 0xbf,
  0xe0, 0x47, 0x83, 0xc0, 0x59, 0xb5, 0xf3, 0xbe, 0x4a, 0x7f, 0x95, 0x3e,
  0x48, 0xcc, 0xd1, 0xbf, 0x9c, 0xcc, 0xbe, 0x3f, 0x23, 0xa4, 0x3e, 0x3d,
  0x81, 0x94, 0xb7, 0x3f, 0x65, 0x45, 0x20, 0x3f, 0x52, 0xf8, 0x29, 0xbf,
  0x63, 0x58, 0xec, 0xbf, 0xf8, 0x22, 0xff, 0x3d, 0xa2, 0x3c, 0xde, 0xbe,
  0xea, 0x9a, 0x4c, 0x3f, 0x74, 0x5d, 0xaf, 0xbf, 0xf0, 0xd8, 0xfe, 0xbe,
  0x3b, 0xb7, 0x28, 0x3f, 0x25, 0xb5, 0x16, 0x40, 0x4b, 0xff, 0x0c, 0xc0,
  0x31, 0xf6, 0xa4, 0x3f, 0x2e, 0x10, 0x2f, 0x3f, 0xf6, 0x77, 0x6c, 0xbf,
  0x9c, 0xd7, 0x16, 0xbe, 0xd1, 0x76, 0x27, 0xbe, 0x34, 0x31, 0x85, 0x3e,
  0x70, 0x92, 0xac, 0xbe, 0xc8, 0x69, 0xf1, 0xbe, 0x31, 0xe8, 0x46, 0x3d,
  0x78, 0x68, 0xcb, 0xbf, 0xab, 0xa8, 0xa6, 0x3f, 0xcd, 0xf7, 0x7f, 0x3c,
  0x98, 0x6e, 0x8c, 0x3d, 0xf2, 0x54, 0x97, 0xbe, 0x22, 0xff, 0xff, 0xff,
  0x04, 0x00, 0x00, 0x00, 0x10, 0x00, 0x00, 0x00, 0x01, 0x00, 0x00, 0x00,
  0x39, 0x00, 0x00, 0x00, 0x01, 0x00, 0x00, 0x00, 0x20, 0x00, 0x00, 0x00,
  0x3e, 0xff, 0xff, 0xff, 0x04, 0x00, 0x00, 0x00, 0x0c, 0x00, 0x00, 0x00,
  0x01, 0x00, 0x00, 0x00, 0x01, 0x00, 0x00, 0x00, 0x20, 0x00, 0x00, 0x00,
  0x56, 0xff, 0xff, 0xff, 0x04, 0x00, 0x00, 0x00, 0x04, 0x00, 0x00, 0x00,
  0x07, 0x00, 0x00, 0x00, 0x66, 0xff, 0xff, 0xff, 0x04, 0x00, 0x00, 0x00,
  0x40, 0x00, 0x00, 0x00, 0x62, 0xf1, 0x94, 0x3f, 0x74, 0xf1, 0xfa, 0x3e,
  0xd8, 0xe7, 0xcc, 0xbf, 0xbc, 0x48, 0x53, 0xbe, 0x4d, 0x8a, 0x36, 0xbf,
  0x63, 0x3a, 0x88, 0xbe, 0x82, 0x04, 0x76, 0xbf, 0xa0, 0x0b, 0x99, 0xbf,
  0x38, 0xcc, 0x9e, 0x3f, 0xa7, 0xa6, 0x42, 0xbf, 0x92, 0xd1, 0x5f, 0xbe,
  0x32, 0x82, 0x14, 0xc0, 0xaa, 0x5d, 0x95, 0x3e, 0xfa, 0x7d, 0xc0, 0x3e,
  0xda, 0x86, 0xa8, 0xbf, 0xeb, 0xec, 0x82, 0xbe, 0xb2, 0xff, 0xff, 0xff,
  0x04, 0x00, 0x00, 0x00, 0x40, 0x00, 0x00, 0x00, 0x56, 0xfb, 0x76, 0x3f,
  0x5a, 0x7f, 0xb5, 0x3f, 0x7d, 0x28, 0x5d, 0x40, 0x9a, 0xc3, 0x27, 0x40,
  0xe3, 0x00, 0x68, 0x40, 0x31, 0x99, 0xce, 0x3f, 0xb9, 0x24, 0x24, 0xc0,
  0x1e, 0xbd, 0x58, 0x3f, 0xd1, 0x66, 0x13, 0x3f, 0xd6, 0x99, 0xba, 0x3f,
  0xf7, 0x73, 0xe1, 0x3f, 0x83, 0xca, 0xc0, 0xbf, 0x8b, 0x09, 0x82, 0xbe,
  0x1c, 0x67, 0xa9, 0x3f, 0x60, 0xe3, 0x34, 0x3f, 0xa7, 0x18, 0x2e, 0x40,
  0x00, 0x00, 0x06, 0x00, 0x08, 0x00, 0x04, 0x00, 0x06, 0x00, 0x00, 0x00,
  0x04, 0x00, 0x00, 0x00, 0x80, 0x00, 0x00, 0x00, 0x72, 0x56, 0xbf, 0x3f,
  0x8e, 0x51, 0x09, 0x40, 0x45, 0xf3, 0x4f, 0x40, 0x84, 0xee, 0xb8, 0x3e,
  0xd2, 0x21, 0x36, 0x3f, 0x9a, 0xd6, 0x85, 0x3f, 0x22, 0xae, 0xbe, 0x3f,
  0x6e, 0x3a, 0x78, 0xc0, 0xd0, 0x1f, 0x78, 0x3f, 0xfc, 0x17, 0x84, 0x40,
  0xd0, 0xe0, 0x97, 0x3f, 0xd8, 0x0d, 0x30, 0x3e, 0x94, 0x18, 0x7f, 0x40,
  0x49, 0xc5, 0x31, 0xc0, 0xc0, 0x8e, 0x47, 0x3e, 0x7c, 0x50, 0x33, 0xc0,
  0xfd, 0x9a, 0x0a, 0x40, 0x30, 0x94, 0x22, 0x3e, 0xec, 0xda, 0xd1, 0x3f,
  0x7a, 0x64, 0x5a, 0xc0, 0x85, 0xb0, 0xc4, 0x3f, 0xfb, 0x50, 0xb5, 0x3f,
  0xd2, 0x49, 0x35, 0x40, 0x28, 0x7c, 0x08, 0x40, 0x1f, 0x81, 0x4f, 0xbf,
  0xec, 0x70, 0x1a, 0x3f, 0x2e, 0xb1, 0xac, 0xbd, 0xbe, 0x3b, 0xee, 0x3f,
  0xa8, 0x80, 0x0e, 0xc0, 0xe6, 0xc6, 0x92, 0x3f, 0xdb, 0xb5, 0xba, 0xbc,
  0x2e, 0x4d, 0x23, 0x40, 0x30, 0xf4, 0xff, 0xff, 0x34, 0xf4, 0xff, 0xff,
  0x0f, 0x00, 0x00, 0x00, 0x4d, 0x4c, 0x49, 0x52, 0x20, 0x43, 0x6f, 0x6e,
  0x76, 0x65, 0x72, 0x74, 0x65, 0x64, 0x2e, 0x00, 0x01, 0x00, 0x00, 0x00,
  0x14, 0x00, 0x00, 0x00, 0x00, 0x00, 0x0e, 0x00, 0x18, 0x00, 0x14, 0x00,
  0x10, 0x00, 0x0c, 0x00, 0x08, 0x00, 0x04, 0x00, 0x0e, 0x00, 0x00, 0x00,
  0x14, 0x00, 0x00, 0x00, 0x1c, 0x00, 0x00, 0x00, 0xd0, 0x02, 0x00, 0x00,
  0xd4, 0x02, 0x00, 0x00, 0xd8, 0x02, 0x00, 0x00, 0x04, 0x00, 0x00, 0x00,
  0x6d, 0x61, 0x69, 0x6e, 0x00, 0x00, 0x00, 0x00, 0x0b, 0x00, 0x00, 0x00,
  0x94, 0x02, 0x00, 0x00, 0x34, 0x02, 0x00, 0x00, 0xd0, 0x01, 0x00, 0x00,
  0x88, 0x01, 0x00, 0x00, 0x44, 0x01, 0x00, 0x00, 0xfc, 0x00, 0x00, 0x00,
  0xd8, 0x00, 0x00, 0x00, 0x94, 0x00, 0x00, 0x00, 0x70, 0x00, 0x00, 0x00,
  0x28, 0x00, 0x00, 0x00, 0x04, 0x00, 0x00, 0x00, 0xa2, 0xfd, 0xff, 0xff,
  0x08, 0x00, 0x00, 0x00, 0x0c, 0x00, 0x00, 0x00, 0x01, 0x00, 0x00, 0x00,
  0x17, 0x00, 0x00, 0x00, 0x02, 0x00, 0x00, 0x00, 0x16, 0x00, 0x00, 0x00,
  0x04, 0x00, 0x00, 0x00, 0x22, 0xfe, 0xff, 0xff, 0x20, 0x00, 0x00, 0x00,
  0x00, 0x00, 0x00, 0x08, 0x20, 0x00, 0x00, 0x00, 0x24, 0x00, 0x00, 0x00,
  0x04, 0x00, 0x00, 0x00, 0x00, 0x00, 0x0a, 0x00, 0x08, 0x00, 0x00, 0x00,
  0x00, 0x00, 0x07, 0x00, 0x0a, 0x00, 0x00, 0x00, 0x00, 0x00, 0x00, 0x01,
  0x01, 0x00, 0x00, 0x00, 0x16, 0x00, 0x00, 0x00, 0x03, 0x00, 0x00, 0x00,
  0x15, 0x00, 0x00, 0x00, 0x07, 0x00, 0x00, 0x00, 0x0b, 0x00, 0x00, 0x00,
  0x06, 0xfe, 0xff, 0xff, 0x08, 0x00, 0x00, 0x00, 0x0c, 0x00, 0x00, 0x00,
  0x01, 0x00, 0x00, 0x00, 0x15, 0x00, 0x00, 0x00, 0x02, 0x00, 0x00, 0x00,
  0x14, 0x00, 0x00, 0x00, 0x05, 0x00, 0x00, 0x00, 0x86, 0xfe, 0xff, 0xff,
  0x14, 0x00, 0x00, 0x00, 0x00, 0x00, 0x00, 0x05, 0x24, 0x00, 0x00, 0x00,
  0x28, 0x00, 0x00, 0x00, 0x03, 0x00, 0x00, 0x00, 0xd6, 0xfe, 0xff, 0xff,
  0x39, 0x00, 0x00, 0x00, 0x01, 0x00, 0x00, 0x00, 0x39, 0x00, 0x00, 0x00,
  0x01, 0x00, 0x00, 0x00, 0x00, 0x00, 0x00, 0x01, 0x01, 0x00, 0x00, 0x00,
  0x14, 0x00, 0x00, 0x00, 0x01, 0x00, 0x00, 0x00, 0x13, 0x00, 0x00, 0x00,
  0x66, 0xfe, 0xff, 0xff, 0x08, 0x00, 0x00, 0x00, 0x0c, 0x00, 0x00, 0x00,
  0x01, 0x00, 0x00, 0x00, 0x13, 0x00, 0x00, 0x00, 0x02, 0x00, 0x00, 0x00,
  0x12, 0x00, 0x00, 0x00, 0x06, 0x00, 0x00, 0x00, 0xe6, 0xfe, 0xff, 0xff,
  0x14, 0x00, 0x00, 0x00, 0x00, 0x00, 0x00, 0x01, 0x20, 0x00, 0x00, 0x00,
  0x24, 0x00, 0x00, 0x00, 0x01, 0x00, 0x00, 0x00, 0xd8, 0xfe, 0xff, 0xff,
  0x00, 0x00, 0x00, 0x01, 0x01, 0x00, 0x00, 0x00, 0x01, 0x00, 0x00, 0x00,
  0x00, 0x00, 0x00, 0x01, 0x01, 0x00, 0x00, 0x00, 0x12, 0x00, 0x00, 0x00,
  0x03, 0x00, 0x00, 0x00, 0x11, 0x00, 0x00, 0x00, 0x08, 0x00, 0x00, 0x00,
  0x01, 0x00, 0x00, 0x00, 0x2a, 0xff, 0xff, 0xff, 0x14, 0x00, 0x00, 0x00,
  0x00, 0x00, 0x00, 0x05, 0x24, 0x00, 0x00, 0x00, 0x28, 0x00, 0x00, 0x00,
  0x02, 0x00, 0x00, 0x00, 0x7a, 0xff, 0xff, 0xff, 0x01, 0x00, 0x00, 0x00,
  0x02, 0x00, 0x00, 0x00, 0x01, 0x00, 0x00, 0x00, 0x02, 0x00, 0x00, 0x00,
  0x00, 0x00, 0x00, 0x01, 0x01, 0x00, 0x00, 0x00, 0x11, 0x00, 0x00, 0x00,
  0x01, 0x00, 0x00, 0x00, 0x10, 0x00, 0x00, 0x00, 0x6a, 0xff, 0xff, 0xff,
  0x14, 0x00, 0x00, 0x00, 0x00, 0x00, 0x00, 0x01, 0x20, 0x00, 0x00, 0x00,
  0x24, 0x00, 0x00, 0x00, 0x01, 0x00, 0x00, 0x00, 0x5c, 0xff, 0xff, 0xff,
  0x00, 0x00, 0x00, 0x01, 0x01, 0x00, 0x00, 0x00, 0x01, 0x00, 0x00, 0x00,
  0x00, 0x00, 0x00, 0x01, 0x01, 0x00, 0x00, 0x00, 0x10, 0x00, 0x00, 0x00,
  0x03, 0x00, 0x00, 0x00, 0x0f, 0x00, 0x00, 0x00, 0x09, 0x00, 0x00, 0x00,
  0x02, 0x00, 0x00, 0x00, 0xae, 0xff, 0xff, 0xff, 0x24, 0x00, 0x00, 0x00,
  0x00, 0x00, 0x00, 0x05, 0x34, 0x00, 0x00, 0x00, 0x38, 0x00, 0x00, 0x00,
  0x02, 0x00, 0x00, 0x00, 0x00, 0x00, 0x0e, 0x00, 0x18, 0x00, 0x17, 0x00,
  0x10, 0x00, 0x0c, 0x00, 0x08, 0x00, 0x04, 0x00, 0x0e, 0x00, 0x00, 0x00,
  0x01, 0x00, 0x00, 0x00, 0x02, 0x00, 0x00, 0x00, 0x01, 0x00, 0x00, 0x00,
  0x02, 0x00, 0x00, 0x00, 0x00, 0x00, 0x00, 0x01, 0x01, 0x00, 0x00, 0x00,
  0x0f, 0x00, 0x00, 0x00, 0x01, 0x00, 0x00, 0x00, 0x0e, 0x00, 0x00, 0x00,
  0x00, 0x00, 0x0e, 0x00, 0x18, 0x00, 0x14, 0x00, 0x10, 0x00, 0x0c, 0x00,
  0x0b, 0x00, 0x04, 0x00, 0x0e, 0x00, 0x00, 0x00, 0x20, 0x00, 0x00, 0x00,
  0x00, 0x00, 0x00, 0x01, 0x2c, 0x00, 0x00, 0x00, 0x30, 0x00, 0x00, 0x00,
  0x01, 0x00, 0x00, 0x00, 0x0c, 0x00, 0x14, 0x00, 0x13, 0x00, 0x0c, 0x00,
  0x08, 0x00, 0x07, 0x00, 0x0c, 0x00, 0x00, 0x00, 0x00, 0x00, 0x00, 0x01,
  0x01, 0x00, 0x00, 0x00, 0x10, 0x00, 0x00, 0x00, 0x00, 0x00, 0x00, 0x01,
  0x01, 0x00, 0x00, 0x00, 0x0e, 0x00, 0x00, 0x00, 0x03, 0x00, 0x00, 0x00,
  0x0d, 0x00, 0x00, 0x00, 0x0a, 0x00, 0x00, 0x00, 0x03, 0x00, 0x00, 0x00,
  0x00, 0x00, 0x0a, 0x00, 0x0c, 0x00, 0x00, 0x00, 0x08, 0x00, 0x04, 0x00,
  0x0a, 0x00, 0x00, 0x00, 0x08, 0x00, 0x00, 0x00, 0x0c, 0x00, 0x00, 0x00,
  0x01, 0x00, 0x00, 0x00, 0x0d, 0x00, 0x00, 0x00, 0x02, 0x00, 0x00, 0x00,
  0x00, 0x00, 0x00, 0x00, 0x0c, 0x00, 0x00, 0x00, 0x01, 0x00, 0x00, 0x00,
  0x17, 0x00, 0x00, 0x00, 0x01, 0x00, 0x00, 0x00, 0x00, 0x00, 0x00, 0x00,
  0x18, 0x00, 0x00, 0x00, 0x94, 0x08, 0x00, 0x00, 0x40, 0x08, 0x00, 0x00,
  0x04, 0x08, 0x00, 0x00, 0xc8, 0x07, 0x00, 0x00, 0x88, 0x07, 0x00, 0x00,
  0x30, 0x07, 0x00, 0x00, 0xf0, 0x06, 0x00, 0x00, 0xb0, 0x06, 0x00, 0x00,
  0x68, 0x06, 0x00, 0x00, 0x20, 0x06, 0x00, 0x00, 0xd8, 0x05, 0x00, 0x00,
  0x98, 0x05, 0x00, 0x00, 0x34, 0x05, 0x00, 0x00, 0xc8, 0x04, 0x00, 0x00,
  0x0c, 0x04, 0x00, 0x00, 0xb0, 0x03, 0x00, 0x00, 0xec, 0x02, 0x00, 0x00,
  0x8c, 0x02, 0x00, 0x00, 0xc8, 0x01, 0x00, 0x00, 0x6c, 0x01, 0x00, 0x00,
  0x08, 0x01, 0x00, 0x00, 0xac, 0x00, 0x00, 0x00, 0x3c, 0x00, 0x00, 0x00,
  0x04, 0x00, 0x00, 0x00, 0xe2, 0xf7, 0xff, 0xff, 0x00, 0x00, 0x00, 0x01,
  0x10, 0x00, 0x00, 0x00, 0x10, 0x00, 0x00, 0x00, 0x18, 0x00, 0x00, 0x00,
  0x18, 0x00, 0x00, 0x00, 0xcc, 0xf7, 0xff, 0xff, 0x08, 0x00, 0x00, 0x00,
  0x49, 0x64, 0x65, 0x6e, 0x74, 0x69, 0x74, 0x79, 0x00, 0x00, 0x00, 0x00,
  0x01, 0x00, 0x00, 0x00, 0x07, 0x00, 0x00, 0x00, 0x16, 0xf8, 0xff, 0xff,
  0x00, 0x00, 0x00, 0x01, 0x10, 0x00, 0x00, 0x00, 0x10, 0x00, 0x00, 0x00,
  0x17, 0x00, 0x00, 0x00, 0x48, 0x00, 0x00, 0x00, 0x00, 0xf8, 0xff, 0xff,
  0x3b, 0x00, 0x00, 0x00, 0x6d, 0x6f, 0x64, 0x65, 0x6c, 0x5f, 0x32, 0x2f,
  0x74, 0x66, 0x2e, 0x6c, 0x69, 0x6e, 0x61, 0x6c, 0x67, 0x2e, 0x6d, 0x61,
  0x74, 0x6d, 0x75, 0x6c, 0x5f, 0x31, 0x2f, 0x4d, 0x61, 0x74, 0x4d, 0x75,
  0x6c, 0x3b, 0x6d, 0x6f, 0x64, 0x65, 0x6c, 0x5f, 0x32, 0x2f, 0x74, 0x66,
  0x2e, 0x6d, 0x61, 0x74, 0x68, 0x2e, 0x61, 0x64, 0x64, 0x5f, 0x33, 0x2f,
  0x41, 0x64, 0x64, 0x00, 0x03, 0x00, 0x00, 0x00, 0x01, 0x00, 0x00, 0x00,
  0x01, 0x00, 0x00, 0x00, 0x07, 0x00, 0x00, 0x00, 0x82, 0xf8, 0xff, 0xff,
  0x00, 0x00, 0x00, 0x01, 0x10, 0x00, 0x00, 0x00, 0x10, 0x00, 0x00, 0x00,
  0x16, 0x00, 0x00, 0x00, 0x34, 0x00, 0x00, 0x00, 0x6c, 0xf8, 0xff, 0xff,
  0x24, 0x00, 0x00, 0x00, 0x6d, 0x6f, 0x64, 0x65, 0x6c, 0x5f, 0x32, 0x2f,
  0x74, 0x66, 0x2e, 0x63, 0x6f, 0x6d, 0x70, 0x61, 0x74, 0x2e, 0x76, 0x31,
  0x2e, 0x73, 0x71, 0x75, 0x65, 0x65, 0x7a, 0x65, 0x2f, 0x53, 0x71, 0x75,
  0x65, 0x65, 0x7a, 0x65, 0x00, 0x00, 0x00, 0x00, 0x03, 0x00, 0x00, 0x00,
  0x01, 0x00, 0x00, 0x00, 0x01, 0x00, 0x00, 0x00, 0x20, 0x00, 0x00, 0x00,
  0xda, 0xf8, 0xff, 0xff, 0x00, 0x00, 0x00, 0x01, 0x10, 0x00, 0x00, 0x00,
  0x10, 0x00, 0x00, 0x00, 0x15, 0x00, 0x00, 0x00, 0x38, 0x00, 0x00, 0x00,
  0xc4, 0xf8, 0xff, 0xff, 0x28, 0x00, 0x00, 0x00, 0x6d, 0x6f, 0x64, 0x65,
  0x6c, 0x5f, 0x32, 0x2f, 0x74, 0x66, 0x2e, 0x63, 0x6f, 0x6d, 0x70, 0x61,
  0x74, 0x2e, 0x76, 0x31, 0x2e, 0x6e, 0x6e, 0x2e, 0x61, 0x76, 0x67, 0x5f,
  0x70, 0x6f, 0x6f, 0x6c, 0x2f, 0x41, 0x76, 0x67, 0x50, 0x6f, 0x6f, 0x6c,
  0x00, 0x00, 0x00, 0x00, 0x04, 0x00, 0x00, 0x00, 0x01, 0x00, 0x00, 0x00,
  0x01, 0x00, 0x00, 0x00, 0x01, 0x00, 0x00, 0x00, 0x20, 0x00, 0x00, 0x00,
  0x3a, 0xf9, 0xff, 0xff, 0x00, 0x00, 0x00, 0x01, 0x10, 0x00, 0x00, 0x00,
  0x10, 0x00, 0x00, 0x00, 0x14, 0x00, 0x00, 0x00, 0x30, 0x00, 0x00, 0x00,
  0x24, 0xf9, 0xff, 0xff, 0x23, 0x00, 0x00, 0x00, 0x6d, 0x6f, 0x64, 0x65,
  0x6c, 0x5f, 0x32, 0x2f, 0x74, 0x66, 0x2e, 0x65, 0x78, 0x70, 0x61, 0x6e,
  0x64, 0x5f, 0x64, 0x69, 0x6d, 0x73, 0x5f, 0x35, 0x2f, 0x45, 0x78, 0x70,
  0x61, 0x6e, 0x64, 0x44, 0x69, 0x6d, 0x73, 0x00, 0x04, 0x00, 0x00, 0x00,
  0x01, 0x00, 0x00, 0x00, 0x39, 0x00, 0x00, 0x00, 0x01, 0x00, 0x00, 0x00,
  0x20, 0x00, 0x00, 0x00, 0x92, 0xf9, 0xff, 0xff, 0x00, 0x00, 0x00, 0x01,
  0x10, 0x00, 0x00, 0x00, 0x10, 0x00, 0x00, 0x00, 0x13, 0x00, 0x00, 0x00,
  0x98, 0x00, 0x00, 0x00, 0x7c, 0xf9, 0xff, 0xff, 0x8b, 0x00, 0x00, 0x00,
  0x6d, 0x6f, 0x64, 0x65, 0x6c, 0x5f, 0x32, 0x2f, 0x74, 0x66, 0x2e, 0x6e,
  0x6e, 0x2e, 0x72, 0x65, 0x6c, 0x75, 0x5f, 0x32, 0x2f, 0x52, 0x65, 0x6c,
  0x75, 0x3b, 0x6d, 0x6f, 0x64, 0x65, 0x6c, 0x5f, 0x32, 0x2f, 0x74, 0x66,
  0x2e, 0x6d, 0x61, 0x74, 0x68, 0x2e, 0x61, 0x64, 0x64, 0x5f, 0x32, 0x2f,
  0x41, 0x64, 0x64, 0x3b, 0x6d, 0x6f, 0x64, 0x65, 0x6c, 0x5f, 0x32, 0x2f,
  0x74, 0x66, 0x2e, 0x63, 0x6f, 0x6d, 0x70, 0x61, 0x74, 0x2e, 0x76, 0x31,
  0x2e, 0x6e, 0x6e, 0x2e, 0x63, 0x6f, 0x6e, 0x76, 0x31, 0x64, 0x5f, 0x32,
  0x2f, 0x63, 0x6f, 0x6e, 0x76, 0x31, 0x64, 0x2f, 0x53, 0x71, 0x75, 0x65,
  0x65, 0x7a, 0x65, 0x3b, 0x6d, 0x6f, 0x64, 0x65, 0x6c, 0x5f, 0x32, 0x2f,
  0x74, 0x66, 0x2e, 0x63, 0x6f, 0x6d, 0x70, 0x61, 0x74, 0x2e, 0x76, 0x31,
  0x2e, 0x6e, 0x6e, 0x2e, 0x63, 0x6f, 0x6e, 0x76, 0x31, 0x64, 0x5f, 0x32,
  0x2f, 0x63, 0x6f, 0x6e, 0x76, 0x31, 0x64, 0x00, 0x04, 0x00, 0x00, 0x00,
  0x01, 0x00, 0x00, 0x00, 0x01, 0x00, 0x00, 0x00, 0x39, 0x00, 0x00, 0x00,
  0x20, 0x00, 0x00, 0x00, 0x52, 0xfa, 0xff, 0xff, 0x00, 0x00, 0x00, 0x01,
  0x10, 0x00, 0x00, 0x00, 0x10, 0x00, 0x00, 0x00, 0x12, 0x00, 0x00, 0x00,
  0x34, 0x00, 0x00, 0x00, 0x3c, 0xfa, 0xff, 0xff, 0x24, 0x00, 0x00, 0x00,
  0x6d, 0x6f, 0x64, 0x65, 0x6c, 0x5f, 0x32, 0x2f, 0x74, 0x66, 0x2e, 0x6e,
  0x6e, 0x2e, 0x6d, 0x61, 0x78, 0x5f, 0x70, 0x6f, 0x6f, 0x6c, 0x31, 0x64,
  0x5f, 0x31, 0x2f, 0x4d, 0x61, 0x78, 0x50, 0x6f, 0x6f, 0x6c, 0x31, 0x64,
  0x00, 0x00, 0x00, 0x00, 0x04, 0x00, 0x00, 0x00, 0x01, 0x00, 0x00, 0x00,
  0x01, 0x00, 0x00, 0x00, 0x3b, 0x00, 0x00, 0x00, 0x10, 0x00, 0x00, 0x00,
  0xae, 0xfa, 0xff, 0xff, 0x00, 0x00, 0x00, 0x01, 0x10, 0x00, 0x00, 0x00,
  0x10, 0x00, 0x00, 0x00, 0x11, 0x00, 0x00, 0x00, 0x98, 0x00, 0x00, 0x00,
  0x98, 0xfa, 0xff, 0xff, 0x8b, 0x00, 0x00, 0x00, 0x6d, 0x6f, 0x64, 0x65,
  0x6c, 0x5f, 0x32, 0x2f, 0x74, 0x66, 0x2e, 0x6e, 0x6e, 0x2e, 0x72, 0x65,
  0x6c, 0x75, 0x5f, 0x31, 0x2f, 0x52, 0x65, 0x6c, 0x75, 0x3b, 0x6d, 0x6f,
  0x64, 0x65, 0x6c, 0x5f, 0x32, 0x2f, 0x74, 0x66, 0x2e, 0x6d, 0x61, 0x74,
  0x68, 0x2e, 0x61, 0x64, 0x64, 0x5f, 0x31, 0x2f, 0x41, 0x64, 0x64, 0x3b,
  0x6d, 0x6f, 0x64, 0x65, 0x6c, 0x5f, 0x32, 0x2f, 0x74, 0x66, 0x2e, 0x63,
  0x6f, 0x6d, 0x70, 0x61, 0x74, 0x2e, 0x76, 0x31, 0x2e, 0x6e, 0x6e, 0x2e,
  0x63, 0x6f, 0x6e, 0x76, 0x31, 0x64, 0x5f, 0x31, 0x2f, 0x63, 0x6f, 0x6e,
  0x76, 0x31, 0x64, 0x2f, 0x53, 0x71, 0x75, 0x65, 0x65, 0x7a, 0x65, 0x3b,
  0x6d, 0x6f, 0x64, 0x65, 0x6c, 0x5f, 0x32, 0x2f, 0x74, 0x66, 0x2e, 0x63,
  0x6f, 0x6d, 0x70, 0x61, 0x74, 0x2e, 0x76, 0x31, 0x2e, 0x6e, 0x6e, 0x2e,
  0x63, 0x6f, 0x6e, 0x76, 0x31, 0x64, 0x5f, 0x31, 0x2f, 0x63, 0x6f, 0x6e,
  0x76, 0x31, 0x64, 0x00, 0x04, 0x00, 0x00, 0x00, 0x01, 0x00, 0x00, 0x00,
  0x01, 0x00, 0x00, 0x00, 0x76, 0x00, 0x00, 0x00, 0x10, 0x00, 0x00, 0x00,
  0x6e, 0xfb, 0xff, 0xff, 0x00, 0x00, 0x00, 0x01, 0x10, 0x00, 0x00, 0x00,
  0x10, 0x00, 0x00, 0x00, 0x10, 0x00, 0x00, 0x00, 0x30, 0x00, 0x00, 0x00,
  0x58, 0xfb, 0xff, 0xff, 0x22, 0x00, 0x00, 0x00, 0x6d, 0x6f, 0x64, 0x65,
  0x6c, 0x5f, 0x32, 0x2f, 0x74, 0x66, 0x2e, 0x6e, 0x6e, 0x2e, 0x6d, 0x61,
  0x78, 0x5f, 0x70, 0x6f, 0x6f, 0x6c, 0x31, 0x64, 0x2f, 0x4d, 0x61, 0x78,
  0x50, 0x6f, 0x6f, 0x6c, 0x31, 0x64, 0x00, 0x00, 0x04, 0x00, 0x00, 0x00,
  0x01, 0x00, 0x00, 0x00, 0x01, 0x00, 0x00, 0x00, 0x78, 0x00, 0x00, 0x00,
  0x10, 0x00, 0x00, 0x00, 0xc6, 0xfb, 0xff, 0xff, 0x00, 0x00, 0x00, 0x01,
  0x10, 0x00, 0x00, 0x00, 0x10, 0x00, 0x00, 0x00, 0x0f, 0x00, 0x00, 0x00,
  0x90, 0x00, 0x00, 0x00, 0xb0, 0xfb, 0xff, 0xff, 0x83, 0x00, 0x00, 0x00,
  0x6d, 0x6f, 0x64, 0x65, 0x6c, 0x5f, 0x32, 0x2f, 0x74, 0x66, 0x2e, 0x6e,
  0x6e, 0x2e, 0x72, 0x65, 0x6c, 0x75, 0x2f, 0x52, 0x65, 0x6c, 0x75, 0x3b,
  0x6d, 0x6f, 0x64, 0x65, 0x6c, 0x5f, 0x32, 0x2f, 0x74, 0x66, 0x2e, 0x6d,
  0x61, 0x74, 0x68, 0x2e, 0x61, 0x64, 0x64, 0x2f, 0x41, 0x64, 0x64, 0x3b,
  0x6d, 0x6f, 0x64, 0x65, 0x6c, 0x5f, 0x32, 0x2f, 0x74, 0x66, 0x2e, 0x63,
  0x6f, 0x6d, 0x70, 0x61, 0x74, 0x2e, 0x76, 0x31, 0x2e, 0x6e, 0x6e, 0x2e,
  0x63, 0x6f, 0x6e, 0x76, 0x31, 0x64, 0x2f, 0x63, 0x6f, 0x6e, 0x76, 0x31,
  0x64, 0x2f, 0x53, 0x71, 0x75, 0x65, 0x65, 0x7a, 0x65, 0x3b, 0x6d, 0x6f,
  0x64, 0x65, 0x6c, 0x5f, 0x32, 0x2f, 0x74, 0x66, 0x2e, 0x63, 0x6f, 0x6d,
  0x70, 0x61, 0x74, 0x2e, 0x76, 0x31, 0x2e, 0x6e, 0x6e, 0x2e, 0x63, 0x6f,
  0x6e, 0x76, 0x31, 0x64, 0x2f, 0x63, 0x6f, 0x6e, 0x76, 0x31, 0x64, 0x00,
  0x04, 0x00, 0x00, 0x00, 0x01, 0x00, 0x00, 0x00, 0x01, 0x00, 0x00, 0x00,
  0xf0, 0x00, 0x00, 0x00, 0x10, 0x00, 0x00, 0x00, 0x7e, 0xfc, 0xff, 0xff,
  0x00, 0x00, 0x00, 0x01, 0x10, 0x00, 0x00, 0x00, 0x10, 0x00, 0x00, 0x00,
  0x0e, 0x00, 0x00, 0x00, 0x40, 0x00, 0x00, 0x00, 0x68, 0xfc, 0xff, 0xff,
  0x31, 0x00, 0x00, 0x00, 0x6d, 0x6f, 0x64, 0x65, 0x6c, 0x5f, 0x32, 0x2f,
  0x74, 0x66, 0x2e, 0x63, 0x6f, 0x6d, 0x70, 0x61, 0x74, 0x2e, 0x76, 0x31,
  0x2e, 0x6e, 0x6e, 0x2e, 0x63, 0x6f, 0x6e, 0x76, 0x31, 0x64, 0x2f, 0x63,
  0x6f, 0x6e, 0x76, 0x31, 0x64, 0x2f, 0x45, 0x78, 0x70, 0x61, 0x6e, 0x64,
  0x44, 0x69, 0x6d, 0x73, 0x31, 0x00, 0x00, 0x00, 0x04, 0x00, 0x00, 0x00,
  0x01, 0x00, 0x00, 0x00, 0x01, 0x00, 0x00, 0x00, 0x00, 0x0f, 0x00, 0x00,
  0x01, 0x00, 0x00, 0x00, 0xe2, 0xfd, 0xff, 0xff, 0x00, 0x00, 0x00, 0x01,
  0x14, 0x00, 0x00, 0x00, 0x14, 0x00, 0x00, 0x00, 0x0d, 0x00, 0x00, 0x00,
  0x00, 0x00, 0x00, 0x02, 0x40, 0x00, 0x00, 0x00, 0xd4, 0xfc, 0xff, 0xff,
  0x30, 0x00, 0x00, 0x00, 0x6d, 0x6f, 0x64, 0x65, 0x6c, 0x5f, 0x32, 0x2f,
  0x74, 0x66, 0x2e, 0x63, 0x6f, 0x6d, 0x70, 0x61, 0x74, 0x2e, 0x76, 0x31,
  0x2e, 0x6e, 0x6e, 0x2e, 0x63, 0x6f, 0x6e, 0x76, 0x31, 0x64, 0x2f, 0x63,
  0x6f, 0x6e, 0x76, 0x31, 0x64, 0x2f, 0x45, 0x78, 0x70, 0x61, 0x6e, 0x64,
  0x44, 0x69, 0x6d, 0x73, 0x00, 0x00, 0x00, 0x00, 0x01, 0x00, 0x00, 0x00,
  0x04, 0x00, 0x00, 0x00, 0x46, 0xfd, 0xff, 0xff, 0x00, 0x00, 0x00, 0x01,
  0x10, 0x00, 0x00, 0x00, 0x10, 0x00, 0x00, 0x00, 0x0c, 0x00, 0x00, 0x00,
  0x20, 0x00, 0x00, 0x00, 0x30, 0xfd, 0xff, 0xff, 0x10, 0x00, 0x00, 0x00,
  0x61, 0x72, 0x69, 0x74, 0x68, 0x2e, 0x63, 0x6f, 0x6e, 0x73, 0x74, 0x61,
  0x6e, 0x74, 0x31, 0x30, 0x00, 0x00, 0x00, 0x00, 0x01, 0x00, 0x00, 0x00,
  0x07, 0x00, 0x00, 0x00, 0x82, 0xfd, 0xff, 0xff, 0x00, 0x00, 0x00, 0x01,
  0x10, 0x00, 0x00, 0x00, 0x10, 0x00, 0x00, 0x00, 0x0b, 0x00, 0x00, 0x00,
  0x1c, 0x00, 0x00, 0x00, 0x6c, 0xfd, 0xff, 0xff, 0x0f, 0x00, 0x00, 0x00,
  0x61, 0x72, 0x69, 0x74, 0x68, 0x2e, 0x63, 0x6f, 0x6e, 0x73, 0x74, 0x61,
  0x6e, 0x74, 0x39, 0x00, 0x04, 0x00, 0x00, 0x00, 0x10, 0x00, 0x00, 0x00,
  0x01, 0x00, 0x00, 0x00, 0x10, 0x00, 0x00, 0x00, 0x01, 0x00, 0x00, 0x00,
  0xc6, 0xfd, 0xff, 0xff, 0x00, 0x00, 0x00, 0x01, 0x10, 0x00, 0x00, 0x00,
  0x10, 0x00, 0x00, 0x00, 0x0a, 0x00, 0x00, 0x00, 0x1c, 0x00, 0x00, 0x00,
  0xb0, 0xfd, 0xff, 0xff, 0x0f, 0x00, 0x00, 0x00, 0x61, 0x72, 0x69, 0x74,
  0x68, 0x2e, 0x63, 0x6f, 0x6e, 0x73, 0x74, 0x61, 0x6e, 0x74, 0x38, 0x00,
  0x04, 0x00, 0x00, 0x00, 0x10, 0x00, 0x00, 0x00, 0x01, 0x00, 0x00, 0x00,
  0x03, 0x00, 0x00, 0x00, 0x10, 0x00, 0x00, 0x00, 0x0a, 0xfe, 0xff, 0xff,
  0x00, 0x00, 0x00, 0x01, 0x10, 0x00, 0x00, 0x00, 0x10, 0x00, 0x00, 0x00,
  0x09, 0x00, 0x00, 0x00, 0x1c, 0x00, 0x00, 0x00, 0xf4, 0xfd, 0xff, 0xff,
  0x0f, 0x00, 0x00, 0x00, 0x61, 0x72, 0x69, 0x74, 0x68, 0x2e, 0x63, 0x6f,
  0x6e, 0x73, 0x74, 0x61, 0x6e, 0x74, 0x37, 0x00, 0x04, 0x00, 0x00, 0x00,
  0x20, 0x00, 0x00, 0x00, 0x01, 0x00, 0x00, 0x00, 0x03, 0x00, 0x00, 0x00,
  0x10, 0x00, 0x00, 0x00, 0x4e, 0xfe, 0xff, 0xff, 0x00, 0x00, 0x00, 0x01,
  0x10, 0x00, 0x00, 0x00, 0x10, 0x00, 0x00, 0x00, 0x08, 0x00, 0x00, 0x00,
  0x1c, 0x00, 0x00, 0x00, 0x38, 0xfe, 0xff, 0xff, 0x0f, 0x00, 0x00, 0x00,
  0x61, 0x72, 0x69, 0x74, 0x68, 0x2e, 0x63, 0x6f, 0x6e, 0x73, 0x74, 0x61,
  0x6e, 0x74, 0x36, 0x00, 0x02, 0x00, 0x00, 0x00, 0x07, 0x00, 0x00, 0x00,
  0x20, 0x00, 0x00, 0x00, 0x86, 0xff, 0xff, 0xff, 0x00, 0x00, 0x00, 0x01,
  0x14, 0x00, 0x00, 0x00, 0x14, 0x00, 0x00, 0x00, 0x07, 0x00, 0x00, 0x00,
  0x00, 0x00, 0x00, 0x02, 0x1c, 0x00, 0x00, 0x00, 0x78, 0xfe, 0xff, 0xff,
  0x0f, 0x00, 0x00, 0x00, 0x61, 0x72, 0x69, 0x74, 0x68, 0x2e, 0x63, 0x6f,
  0x6e, 0x73, 0x74, 0x61, 0x6e, 0x74, 0x35, 0x00, 0x01, 0x00, 0x00, 0x00,
  0x04, 0x00, 0x00, 0x00, 0xc2, 0xff, 0xff, 0xff, 0x00, 0x00, 0x00, 0x01,
  0x14, 0x00, 0x00, 0x00, 0x14, 0x00, 0x00, 0x00, 0x06, 0x00, 0x00, 0x00,
  0x00, 0x00, 0x00, 0x02, 0x1c, 0x00, 0x00, 0x00, 0xb4, 0xfe, 0xff, 0xff,
  0x0f, 0x00, 0x00, 0x00, 0x61, 0x72, 0x69, 0x74, 0x68, 0x2e, 0x63, 0x6f,
  0x6e, 0x73, 0x74, 0x61, 0x6e, 0x74, 0x34, 0x00, 0x01, 0x00, 0x00, 0x00,
  0x03, 0x00, 0x00, 0x00, 0x00, 0x00, 0x16, 0x00, 0x1c, 0x00, 0x18, 0x00,
  0x17, 0x00, 0x10, 0x00, 0x0c, 0x00, 0x08, 0x00, 0x00, 0x00, 0x00, 0x00,
  0x00, 0x00, 0x07, 0x00, 0x16, 0x00, 0x00, 0x00, 0x00, 0x00, 0x00, 0x01,
  0x14, 0x00, 0x00, 0x00, 0x14, 0x00, 0x00, 0x00, 0x05, 0x00, 0x00, 0x00,
  0x00, 0x00, 0x00, 0x02, 0x1c, 0x00, 0x00, 0x00, 0x08, 0xff, 0xff, 0xff,
  0x0f, 0x00, 0x00, 0x00, 0x61, 0x72, 0x69, 0x74, 0x68, 0x2e, 0x63, 0x6f,
  0x6e, 0x73, 0x74, 0x61, 0x6e, 0x74, 0x33, 0x00, 0x01, 0x00, 0x00, 0x00,
  0x01, 0x00, 0x00, 0x00, 0x56, 0xff, 0xff, 0xff, 0x00, 0x00, 0x00, 0x01,
  0x10, 0x00, 0x00, 0x00, 0x10, 0x00, 0x00, 0x00, 0x04, 0x00, 0x00, 0x00,
  0x1c, 0x00, 0x00, 0x00, 0x40, 0xff, 0xff, 0xff, 0x0f, 0x00, 0x00, 0x00,
  0x61, 0x72, 0x69, 0x74, 0x68, 0x2e, 0x63, 0x6f, 0x6e, 0x73, 0x74, 0x61,
  0x6e, 0x74, 0x32, 0x00, 0x01, 0x00, 0x00, 0x00, 0x10, 0x00, 0x00, 0x00,
  0x8e, 0xff, 0xff, 0xff, 0x00, 0x00, 0x00, 0x01, 0x10, 0x00, 0x00, 0x00,
  0x10, 0x00, 0x00, 0x00, 0x03, 0x00, 0x00, 0x00, 0x1c, 0x00, 0x00, 0x00,
  0x78, 0xff, 0xff, 0xff, 0x0f, 0x00, 0x00, 0x00, 0x61, 0x72, 0x69, 0x74,
  0x68, 0x2e, 0x63, 0x6f, 0x6e, 0x73, 0x74, 0x61, 0x6e, 0x74, 0x31, 0x00,
  0x01, 0x00, 0x00, 0x00, 0x10, 0x00, 0x00, 0x00, 0xc6, 0xff, 0xff, 0xff,
  0x00, 0x00, 0x00, 0x01, 0x10, 0x00, 0x00, 0x00, 0x10, 0x00, 0x00, 0x00,
  0x02, 0x00, 0x00, 0x00, 0x1c, 0x00, 0x00, 0x00, 0xb0, 0xff, 0xff, 0xff,
  0x0e, 0x00, 0x00, 0x00, 0x61, 0x72, 0x69, 0x74, 0x68, 0x2e, 0x63, 0x6f,
  0x6e, 0x73, 0x74, 0x61, 0x6e, 0x74, 0x00, 0x00, 0x01, 0x00, 0x00, 0x00,
  0x20, 0x00, 0x00, 0x00, 0x00, 0x00, 0x16, 0x00, 0x18, 0x00, 0x14, 0x00,
  0x00, 0x00, 0x10, 0x00, 0x0c, 0x00, 0x08, 0x00, 0x00, 0x00, 0x00, 0x00,
  0x00, 0x00, 0x07, 0x00, 0x16, 0x00, 0x00, 0x00, 0x00, 0x00, 0x00, 0x01,
  0x14, 0x00, 0x00, 0x00, 0x14, 0x00, 0x00, 0x00, 0x01, 0x00, 0x00, 0x00,
  0x1c, 0x00, 0x00, 0x00, 0x04, 0x00, 0x04, 0x00, 0x04, 0x00, 0x00, 0x00,
  0x08, 0x00, 0x00, 0x00, 0x69, 0x6e, 0x70, 0x75, 0x74, 0x73, 0x5f, 0x30,
  0x00, 0x00, 0x00, 0x00, 0x03, 0x00, 0x00, 0x00, 0x01, 0x00, 0x00, 0x00,
  0x00, 0x0f, 0x00, 0x00, 0x01, 0x00, 0x00, 0x00, 0x05, 0x00, 0x00, 0x00,
  0x60, 0x00, 0x00, 0x00, 0x44, 0x00, 0x00, 0x00, 0x34, 0x00, 0x00, 0x00,
  0x24, 0x00, 0x00, 0x00, 0x10, 0x00, 0x00, 0x00, 0x0c, 0x00, 0x10, 0x00,
  0x0f, 0x00, 0x00, 0x00, 0x08, 0x00, 0x04, 0x00, 0x0c, 0x00, 0x00, 0x00,
  0x09, 0x00, 0x00, 0x00, 0x05, 0x00, 0x00, 0x00, 0x00, 0x00, 0x00, 0x09,
  0xdc, 0xff, 0xff, 0xff, 0x01, 0x00, 0x00, 0x00, 0x00, 0x00, 0x00, 0x01,
  0xe8, 0xff, 0xff, 0xff, 0x11, 0x00, 0x00, 0x00, 0x00, 0x00, 0x00, 0x11,
  0xf4, 0xff, 0xff, 0xff, 0x03, 0x00, 0x00, 0x00, 0x00, 0x00, 0x00, 0x03,
  0x0c, 0x00, 0x0c, 0x00, 0x0b, 0x00, 0x00, 0x00, 0x00, 0x00, 0x04, 0x00,
  0x0c, 0x00, 0x00, 0x00, 0x16, 0x00, 0x00, 0x00, 0x00, 0x00, 0x00, 0x16
};
unsigned int model_tflite_len = 15240;
